#version: 0.2
t h
i n
a n
r e
th e</w>
o u
e r</w>
a r
e r
o n
t i
in g</w>
u s
i s</w>
t o</w>
e d</w>
" "</w>
a l
i t
o n</w>
o r
a t</w>
e n
an d</w>
e s</w>
o f</w>
o u</w>
a t
a c
s t
i n</w>
o r</w>
y ou</w>
l i
l y</w>
d i
n o
r o
l e
v e</w>
h a
w h
l e</w>
a n</w>
o m
a s
th at</w>
us er</w>
i g
i t</w>
@ user</w>
e n</w>
a s</w>
a g
l o
b e
T h
th e
p e
i s
i l
i c
s e
d e
m e</w>
a l</w>
f or</w>
ti on</w>
a b
s h
u n
ar e</w>
b e</w>
th is</w>
u r
k e</w>
no t</w>
e s
a y</w>
l d</w>
t r
a d
er e</w>
u c
p o
y ou
e l
c h
ti c
' s</w>
c on
s i
ou t</w>
o p
w it
b u
" ""</w>
e v
' t</w>
ha ve</w>
t s</w>
on e</w>
wit h</w>
ig g
l a
o o
m a
ou ld</w>
t e
s e</w>
c om
n e
p ro
en t</w>
c e</w>
r i
m y</w>
s t</w>
s u
in g
al l</w>
you r</w>
ag e</w>
w as</w>
f ac
r a
s o</w>
n igg
m o
e d
ar tic
v er
o l
v i
a m
th er</w>
us t</w>
al ly</w>
at e</w>
bu t</w>
ti on
i r
. .</w>
w i
f e
e x
k ing</w>
g o
d o
c a
h o
s a
li ke</w>
s om
ig h
e t</w>
er s</w>
k i
or e</w>
Th e</w>
t ed</w>
us e</w>
m e
ro m</w>
q u
nigg a</w>
h e
t o
ou n
k s</w>
c i
i m
f rom</w>
d o</w>
w or
b y</w>
the y</w>
u m
. ..</w>
t a
ab out</w>
: :</w>
o f
no w</w>
il l</w>
I '
p p
c h</w>
di a</w>
artic le</w>
t er</w>
j ust</w>
p er
l l</w>
c an</w>
i f</w>
a d</w>
a r</w>
w e
b o
re n
an t</w>
t ing</w>
an y</w>
an d
W i
f or
wi th
igh t</w>
re s
h e</w>
wh at</w>
th ing</w>
as e</w>
it e</w>
ki pe
W h
ou r
p age</w>
it y</w>
p l
w ill</w>
i r</w>
on 't</w>
p u
e m
u p</w>
in k</w>
op le</w>
t al
ha s</w>
tion s</w>
h i
ing _
s c
d s</w>
w ould</w>
kipe dia</w>
f uc
n o</w>
pe ople</w>
ou g
t h</w>
wh o</w>
e _
ac k</w>
t er
m ore</w>
Y ou</w>
g u
n 't</w>
i d</w>
a tion</w>
o ther</w>
j o
t e</w>
u l
m in
re d</w>
w e</w>
a m</w>
r e</w>
d e</w>
ev er</w>
g i
c t</w>
y s</w>
d on't</w>
d ed</w>
ca use</w>
fac e_
ur e</w>
th ere</w>
with _
Wi kipedia</w>
g et</w>
w n</w>
I f</w>
b it
ab le</w>
le ase</w>
som e</w>
ed it
el l</w>
be en</w>
face_ with_
h is</w>
t u
d er</w>
n a
c k</w>
ar d</w>
ic h</w>
k now</w>
the m</w>
th ink</w>
sh ould</w>
k ed</w>
y ing</w>
ou r</w>
Th is</w>
f in
uc h</w>
the ir</w>
lo o
I' m</w>
wh en</w>
at ed</w>
f u
som e
A n
e t
d ay</w>
oo d</w>
c o
tal k</w>
2 0
d ing</w>
com m
i c</w>
se l
s p
w ay</w>
be cause</w>
e p
c l
an g
se e</w>
h ere</w>
go t</w>
wh ich</w>
a p
ho w</w>
s pe
re t
on g</w>
ti me</w>
f a
ou s</w>
u s</w>
s _
an s</w>
on ly</w>
de le
k e
is t</w>
tr i
p ar
u p
es t</w>
oug h</w>
h er</w>
con t
R T</w>
i st
jo y</w>
t y</w>
be ing</w>
an y
fac e</w>
l in
ac c
u g
as t</w>
s o
g r
w a
w s</w>
o w</w>
l es</w>
I t</w>
v er</w>
f i
s our
s m
re e</w>
j e
c es</w>
c r
th an</w>
s s</w>
b i
w r
v ing</w>
d er
th en</w>
of _
as s</w>
en ce</w>
ev er
e l</w>
al l
b lo
te ar
ti ve</w>
w ere</w>
re c
t ly</w>
r ight</w>
w ant</w>
s_ of_
tear s_of_
tears_of_ joy</w>
en ts</w>
' re</w>
ev en</w>
face_with_ tears_of_joy</w>
bit ch</w>
fe ren
ar y</w>
f ir
T H
s er
ag a
it 's</w>
b l
t w
oun d</w>
a f
Th an
y e
R e
ma ke</w>
v ed</w>
wh y</w>
e y</w>
s en
s ti
si on</w>
it s</w>
u e</w>
ha d</w>
ac e</w>
or y</w>
il l
u t</w>
es s</w>
p or
c re
per s
sel f</w>
g o</w>
c an
com e</w>
s ay</w>
po in
is m</w>
di s
e di
i d
di d</w>
p re
ing s</w>
al so</w>
un t</w>
g ood</w>
f ic
the se</w>
l l
w om
p a
h el
ar s</w>
ag es</w>
on s</w>
di sc
re ally</w>
tr y</w>
ver y</w>
C h
en d</w>
sh e</w>
v es</w>
s ed</w>
i z
th o
I N
ne ed</w>
sh it</w>
ar t</w>
st r
ad e</w>
wh ere</w>
v e
c tion</w>
or s</w>
m on
g a
P lease</w>
p la
g e
b ack</w>
pro b
re ad
an ce</w>
po li
m p
c unt</w>
g en
at t
mo st</w>
le ss</w>
b er</w>
hi m</w>
be t
edi t</w>
g e</w>
b r
k in
h t</w>
st e
fuc king</w>
i on</w>
An d</w>
r y</w>
I n
us ed</w>
Y O
N igg
m s</w>
d n't</w>
sa id</w>
A N
o ver</w>
to o</w>
e w</w>
fuc k</w>
c ould</w>
b le</w>
at 's</w>
m uch</w>
in to</w>
m ay</w>
it t
m at
re mo
p r
m an</w>
m en
su b
f e</w>
ch ang
U C
d y</w>
t 's</w>
p h
fu l</w>
o b
a u
m is
p res
loo k</w>
f ore</w>
na me</w>
do es</w>
go ing</w>
artic les</w>
wor k</w>
m any</w>
v o
ne w</w>
is h</w>
at ing</w>
ic e</w>
p lease</w>
el l
m ent</w>
sti ll</w>
N o
wh ite</w>
disc us
ig n
sh o
ar i
s uch</w>
20 0
lo w
ha pp
es s
an n
1 9
com p
en ti
in for
c or
c oun
re as
A l
ma tion</w>
sa me</w>
lo w</w>
i le</w>
w ell</w>
k es</w>
m ade</w>
i l</w>
st ed</w>
of f</w>
oo k</w>
e p</w>
in e</w>
tho se</w>
R E
p ri
m er
r u
cl u
fir st</w>
i de
ch e
at es</w>
Wh at</w>
n ever</w>
Nigg a</w>
f ol
g re
st o
f ag
w ar
at e
di f
p s</w>
a pp
ac k
G G
c all
be li
e y
in ce</w>
i es</w>
I n</w>
ing_ face</w>
d a
b er
c la
t y
s h</w>
re ad</w>
c le
m ar
B ut</w>
ever y
E R</w>
qu es
ur l
or t</w>
ti c</w>
ta ke</w>
c lo
af ter</w>
n ing</w>
YO U</w>
S o</w>
< url
ou s
tu ally</w>
M y</w>
b li
t ure</w>
o wn</w>
lo ve</w>
un der
c ol
infor mation</w>
wom en</w>
Than ks</w>
fin d</w>
x t</w>
I t's</w>
some one</w>
s y
be fore</w>
N I
U n
con tri
hel p</w>
al s</w>
aga in</w>
i al</w>
some thing</w>
poin t</w>
i a</w>
D e
y _
A r
H A
<url ></w>
d uc
ar ded</w>
di c
can 't</w>
wa ys</w>
t t
s ing</w>
s ure</w>
g ra
con si
st s</w>
re s</w>
p ic
c ked</w>
I' ve</w>
you 're</w>
Th at</w>
i m</w>
c er
r an
je ct</w>
b as
do es
pu bli
f ri
p e</w>
uc k</w>
sour ces</w>
c ur
re ver
ti m
beli e
k no
nigg er</w>
fag got</w>
em ent</w>
F UC
0 0</w>
li g
prob le
in t
li fe</w>
O O
p ages</w>
st u
o w
Th ey</w>
p le</w>
ou l
pu t</w>
su pp
S t
you r
bet ter</w>
S e
20 1
f t</w>
do wn</w>
oug ht</w>
dele tion</w>
lo g
n um
W e</w>
W P</w>
th ough</w>
ret arded</w>
ar ly</w>
c op
us ing</w>
NI GG
v en</w>
al k</w>
re f
re qu
om e</w>
N o</w>
A L
tion al</w>
under st
m an
tr a
I S</w>
po s
itt le</w>
tw o</w>
fac t</w>
hi st
c u
H e</w>
sour ce</w>
en c
se ction</w>
is e</w>
re li
sto p</w>
IN G</w>
re feren
h ing</w>
v and
read y</w>
me m
dif feren
Th ere</w>
E n
c ri
ch es</w>
oo l</w>
le t</w>
op e</w>
pl ace</w>
C on
t ur
w at
wh o
pers on</w>
re al</w>
ro ll
in v
edit ing</w>
M a
pers on
in clu
c en
does n't</w>
is su
an other</w>
we e
in ter
l ittle</w>
B e
sh i
re d
contri bu
a ve</w>
sm il
p us
th er
edit s</w>
ac tually</w>
s ince</w>
with out</w>
r ac
an s
gi ve</w>
st ing</w>
H ow</w>
belie ve</w>
ac h</w>
m il
spe ci
th ings</w>
in te
at s</w>
em s</w>
as h</w>
D I
ti es</w>
ic k</w>
ig n</w>
dele ted</w>
A mer
p on
d one</w>
in st</w>
e i
le g
e f
h ate</w>
A s</w>
ic al</w>
Amer ic
Than k</w>
ab ly</w>
bo dy</w>
f ree</w>
m ight</w>
U T
ne ed
m m
fe el</w>
any thing</w>
vi ew</w>
en d
T r
. 1
s y</w>
ever y</w>
aga inst</w>
wh ile</w>
so ci
t able</w>
ye ars</w>
I s
discus sion</w>
a tions</w>
le v
a h</w>
b ro
O N
o c
Th e
h ar
th an
vand al
l ong</w>
m us
me di
il ity</w>
v en
L i
s ur
s ch
o ld</w>
wor ld</w>
T alk</w>
se e
ous ly</w>
ad d</w>
al ways</w>
di dn't</w>
g ar
b ad</w>
Wh y</w>
m en</w>
no thing</w>
N O
reas on</w>
ke ep</w>
w er</w>
smil ing_
on g
h and
e ws</w>
it ed</w>
P ro
al e</w>
lin e</w>
a k
th r
s k
tr ying</w>
as k</w>
it er
. "</w>
um p</w>
wr ong</w>
w an
on t</w>
th ers</w>
A R
bl ack</w>
re ct</w>
ac t</w>
u al</w>
inte re
in f
ey es</w>
E R
i an</w>
s ite</w>
G o
l ou
do ing</w>
cr y
ag ree</w>
lo t</w>
M o
Y our</w>
blo cked</w>
ist s</w>
d l
s ign
et ting</w>
P O
es e</w>
c y</w>
ar ound</w>
u m</w>
me an</w>
your self</w>
un der</w>
call ed</w>
z z
l an
Wh en</w>
L O
si de</w>
u t
th at's</w>
st up
g g
al ready</w>
s es</w>
m or
l ast</w>
cont in
e st
n on
TH E</w>
la ug
l ink</w>
gen er
_ s
i ly</w>
li st</w>
t one</w>
al ity</w>
c ase</w>
par t</w>
e w
a v
he ad</w>
ar ch</w>
d es</w>
ar g
a k</w>
a a
f r
st at
p i
S T
st ar
res pon
ol u
si mp
il d
cry ing_face</w>
bo th</w>
be st</w>
proble m</w>
it ing</w>
h ope</w>
O n
t ell</w>
f am
blo ck</w>
el come</w>
ou t
b re
m ust</w>
chang e</w>
im age</w>
l s</w>
d y
res s</w>
_ f
re 's</w>
to p</w>
g ir
J ust</w>
s er</w>
c ed</w>
any one</w>
cont ent</w>
e le
oul dn't</w>
he art</w>
b a
k i</w>
sh ow</w>
sa ying</w>
sc ri
n a</w>
c all</w>
por t
bit ches</w>
wor d</w>
ma king</w>
I T
se x
tim es</w>
se ems</w>
underst and</w>
n ed</w>
b s</w>
F A
dl y_
lou dly_
loudly_ crying_face</w>
c k
b or
fe w</w>
ap pe
sa ys</w>
ad ded</w>
N a
hist ory</w>
stup id</w>
r is
tw at</w>
comm ent</w>
ta in
la r</w>
or ry</w>
gre at</w>
Y ou
t re
de fin
I' ll</w>
comp le
o ve</w>
ep t</w>
NIGG A</w>
a w
li sh</w>
po si
f un
c our
C om
te xt</w>
op in
kin _
_s kin_
g etting</w>
_skin_ tone</w>
to day</w>
s on</w>
al i
ques tion</w>
th ought</w>
S h
su l
it es</w>
en ough</w>
e 's</w>
1 1
UT C</w>
or ig
P o
l and</w>
differen t</w>
gr ou
ap pro
tic al</w>
oun t</w>
m y
remo ved</w>
c ra
n am
la tion</w>
p er</w>
is n't</w>
a ren
no tic
U S
s ha
F or</w>
thr ough</w>
n i
fol low
ma kes</w>
k en</w>
te m
l at
el se</w>
shi p</w>
pro vi
ex am
w ing</w>
edit ors</w>
y be</w>
J o
person al</w>
' ve</w>
je c
coun try</w>
t es</w>
st er</w>
of f
ha ving</w>
si ble</w>
S H
ti l</w>
o thers</w>
ex c
cur ren
po st</w>
comm ents</w>
it h</w>
I L
v al
ex per
on _
le ast</w>
roll ing_
ex pla
b ook</w>
ac ks</w>
y y
L e
iz e</w>
u d
p ret
h um
En g
pus sy</w>
en ds</w>
prob ably</w>
m ess
cop y
c ul
I s</w>
A ll</w>
bi g</w>
v is
le ft</w>
d on</w>
sen se</w>
f ound</w>
H i</w>
a way</w>
ar t
pl ac
A T
# M
te ly</w>
ye ar</w>
re e
Al so</w>
we en</w>
B o
d am
th in
I m
comm un
n n
ad m
re ly</w>
ch ar
orig in
g ay</w>
smiling_ face_with_
I T</w>
no te</w>
f f</w>
d u
pe ct</w>
of fic
laug hing</w>
se arch</w>
f ar</w>
re por
si ve</w>
ei ther</w>
lin ks</w>
o re
f y</w>
D o</w>
t al</w>
need s</w>
A S
en g
ab ility</w>
C O
E D</w>
lo l</w>
h om
d en
issu e</w>
ar k
ra ther</w>
di o
ad min
b it</w>
p ed</w>
m i
P e
W W
ro w</w>
mem ber</w>
bo x</w>
im port
n y</w>
wi kipedia</w>
le ave</w>
T o</w>
c are</w>
s uc
an ti
f il
happ y</w>
ed y</w>
y et</w>
t om
mat ter</w>
as h
for m
U N
M us
w elcome</w>
qu o
poli cy</w>
tr ash</w>
en s</w>
tr ue</w>
c ha
L I
U S</w>
ste ad</w>
medi um
da ys</w>
con f
me dia</w>
de scri
po sed</w>
d ate</w>
u r</w>
' ll</w>
et c</w>
the y
in s</w>
No t</w>
ad d
h ard</w>
pro duc
v ic
on es</w>
bet ween</w>
li c
ac h
st and
d ent</w>
supp ort</w>
who le</w>
un til</w>
FUC K</w>
loo king</w>
ret ard</w>
FUC K
y clo
se en</w>
ate ly</w>
d r
st ate</w>
o ver
e ly</w>
ab ove</w>
i ous</w>
n s</w>
cor rect</w>
or _
wh e
s ing
0 0
gu y</w>
p artic
on_ the
_f lo
_flo or_
rolling_ on_the
rolling_on_the _floor_
rolling_on_the_floor_ laughing</w>
every one</w>
de red</w>
kipe di
ch o
M E</w>
tr u
c ted</w>
sub ject</w>
li ve</w>
fi ed</w>
st art</w>
str uc
we b
ta g</w>
at or</w>
r igh
ic s</w>
ne xt</w>
remo ve</w>
o m</w>
ca me</w>
us er
cla im
a re
fu ll</w>
pro te
kin d</w>
ac y</w>
L o
ta in</w>
b oo
A d
ti t
vandal ism</w>
R o
f ic</w>
vi de
tal king</w>
c ess
p en
l u
e as
H e
H ow
U ser</w>
ho es</w>
c ar
at h</w>
st er
h or
t ers</w>
ga me</w>
I' d</w>
y a</w>
se t</w>
en tly</w>
fuc k
a in
er r
E x
che ck</w>
I N</w>
d ro
su s</w>
in ing</w>
contin ue</w>
t on
N ow</w>
t op
I S
d ont</w>
wor ds</w>
dy ke</w>
vi ol
wom an</w>
yclo pe
tic s</w>
Th at's</w>
ou th</w>
# B
u ro
ques tions</w>
ver n
l ed</w>
P er
ev id
cont ro
il d</w>
E S</w>
_ face</w>
log y</w>
M ar
min d</w>
li es</w>
b ir
opin ion</w>
le ar
simp ly</w>
lan gu
lin es</w>
pl ay</w>
fa ir</w>
PO V</w>
st y
g an
S he</w>
b ack
A N</w>
lig h
i dio
wr ite</w>
ide a</w>
E N
po se</w>
ch ing</w>
n ess</w>
he 's</w>
re l
ate g
ig h</w>
Tr ump</w>
ou se</w>
reli able</w>
C an
O N</w>
p ho
me ans</w>
see m</w>
ag g
. 2
w ish</w>
tu al</w>
d ou
is h
cle ar</w>
f ul
R A
ad ding</w>
exam ple</w>
com ing</w>
s ci
copy right</w>
se con
acc ount</w>
au th
w as
re al
s we
b us
b ab
non -
di rec
ic ally</w>
pl an
in ed</w>
su gg
F uck</w>
a ke</w>
cre ated</w>
o s</w>
i ve</w>
ob vi
d um
in stead</w>
A T</w>
or ity</w>
ag o</w>
f f
k ill
grou p</w>
arg um
1 0</w>
in de
AN D</w>
W ell</w>
pret ty</w>
s olu
mon ey</w>
_ heart</w>
on ce</w>
b ers</w>
in st
Wi kipedi
ter m</w>
E S
cour se</w>
con cer
w ar</w>
mat er
sel ves</w>
re lev
C he
sch ool</w>
M e</w>
B r
de c
te mp
How ever</w>
edit or</w>
N ew</w>
un d
Eng lish</w>
re n</w>
origin al</w>
ma in</w>
Q u
can not</w>
b ur
num ber</w>
ho e</w>
re gar
h on
a in</w>
referen ce</w>
gi ven</w>
t on</w>
r ace</w>
p ur
p ing</w>
de ci
y ed</w>
fri end</w>
b ra
r ul
enc yclope
publi c</w>
itt en</w>
ris ti
pos sible</w>
t en
dele te</w>
I P</w>
h igh
cla im</w>
import ant</w>
every thing</w>
M Y</w>
m ed</w>
ta tion</w>
as ed</w>
F e
w on
for m</w>
bas ed</w>
e ach</w>
i ver
O R
O h</w>
i e</w>
loo ks</w>
E L
w in
cle arly</w>
ma j
i ons</w>
A f
le s
evid ence</w>
ve ly</w>
B l
C K</w>
inv ol
f oo
Americ an</w>
H ell
in a</w>
p an
acc ep
my self</w>
sty le</w>
e ar
as s
a ti
Mus li
d ra
poin ts</w>
ser v
T o
il ly</w>
su mm
qu ite</w>
wr itten</w>
re ci
t or</w>
iz ed</w>
e qu
im m
a 's</w>
R O
is ed</w>
ic k
appro pri
spe edy</w>
gu ide
than ks</w>
t or
s orry</w>
w ard</w>
s ign</w>
se x</w>
fir e</w>
th y</w>
A G
po pu
li ber
c e
mess age</w>
d ge</w>
vi a</w>
im pro
h al
to ld</w>
the m
en ed</w>
ca p
T O</w>
D o
f ur
l y
m ale</w>
M e
referen ces</w>
h a</w>
c am
an t
ver sion</w>
s le
fe min
con sen
gu ys</w>
a y
sh ed</w>
h y
le ad
Hell o</w>
Y e
l ong
NO T</w>
relev ant</w>
at ure</w>
th s</w>
kno wn</w>
vide o</w>
ha ps</w>
wh at
ke y</w>
ir e</w>
langu age</w>
leg al</w>
ha ha
ur ing</w>
fam ily</w>
n or
V E</w>
in di
ch ild
z i</w>
You 're</w>
1 0
en ing</w>
go vern
us ers</w>
fri ends</w>
t en</w>
us e
D on't</w>
att ack</w>
ge ts</w>
H o
n er</w>
tion ed</w>
ter r
supp or
W e
ti v
2 0</w>
mo ve</w>
ar ch
d a</w>
Wi ki
z e</w>
i ans</w>
d ly</w>
wan ted</w>
1 8
st ra
com es</w>
cr iter
w on't</w>
consi der</w>
S o
jo b</w>
c ess</w>
c ro
ne ck</w>
pe ci
tem pl
ul t</w>
mater ial</w>
s la
m u
t ally</w>
no table</w>
and s</w>
consen sus</w>
l ing</w>
rac ist</w>
ma ybe</w>
tri es</w>
w ent</w>
Wh ite</w>
z y</w>
u ll</w>
Is la
F F
h ome</w>
th re
Y es</w>
star ted</w>
b ar
char ac
W or
de f
c um
reli gi
O n</w>
u tr
in d</w>
gu e</w>
C an</w>
on na</w>
or der</w>
g am
s it
p pe
HA HA
lo c
p le
S UC
our s</w>
fe el
n ight</w>
posi tion</w>
t ro
he ad
appropri ate</w>
m ing</w>
rever ted</w>
tic ally</w>
Se e</w>
y es</w>
wor king</w>
tr ans
b all</w>
them selves</w>
# m
li m
they 're</w>
lo gi
re sul
bo y</w>
G er
consi dered</w>
fol low</w>
men tion</w>
n ice</w>
E E
whe ther</w>
us si
ful ly</w>
c as
sing le</w>
i o
de m
as su
en tion</w>
TH IS</w>
contribu tions</w>
Im age</w>
d ri
b an
stu ff</w>
P ar
On e</w>
il s</w>
S u
wit ter</w>
ist r
gir l</w>
d ark
N e
A c
j us
n t</w>
l ar
wi ki</w>
li ke
re la
c ou
ac tion</w>
G re
t ting</w>
follow ing</w>
al low
sti tu
en ded</w>
lo ad
se ver
r up
' d</w>
wee k</w>
W H
y s
at temp
em p
po wer</w>
ne t</w>
f al
gu ess</w>
st ay</w>
fac ts</w>
su p
cl us
l iter
in ess</w>
ne ws</w>
the re's</w>
or gan
issu es</w>
war ds</w>
m ul
J ews</w>
g ro
h and</w>
or ies</w>
web site</w>
Th ese</w>
im ages</w>
gra ph
y o</w>
J u
om e
in t</w>
C o
B ar
m a</w>
k er</w>
rul es</w>
ad v
g n
re st</w>
h er
B ri
wat ch</w>
w le
requ est</w>
g onna</w>
re search</w>
et y</w>
E uro
medium -
stat ement</w>
A re</w>
curren t</w>
ki ds</w>
c it
en ted</w>
ar ds</w>
fur ther</w>
Ch risti
lig ht</w>
app reci
b ed</w>
sever al</w>
or d</w>
ar ing</w>
rever t</w>
ann a</w>
child ren</w>
chang es</w>
0 00</w>
A s
adm in</w>
p h</w>
I C
t ook</w>
in d
mar k</w>
ad di
di ck</w>
f l
O F</w>
t -
le c
rel ated</w>
si ons</w>
ex p
tt a</w>
g l
encyclope dia</w>
call ing</w>
add ress</w>
S a
i de</w>
di st
N or
ta king</w>
h igh</w>
read ing</w>
e m</w>
sa w</w>
ag ra
us es</w>
fe ct</w>
c king</w>
ac tly</w>
pi e
comple tely</w>
re member</w>
ir d</w>
men tioned</w>
s ity</w>
cre ate</w>
D a
guide lines</w>
C a
criter ia</w>
th ree</w>
f re
ci es</w>
govern ment</w>
un ch</w>
ne w
tit le</w>
pic ture</w>
be come</w>
H ey</w>
is s</w>
ste m</w>
G u
at u
ti sh</w>
qu e
notic e</w>
1 00</w>
imm ig
oug h
re view</w>
h ell</w>
H a
ex ist
er y</w>
al ism</w>
O U
do m</w>
wa it</w>
li sted</w>
u ation</w>
G ood</w>
t ence</w>
O R</w>
p ast</w>
w in</w>
oun ds</w>
me an
S er
was n't</w>
il li
he art
commun ity</w>
dark _skin_tone</w>
ho w
f ore
be ha
ne utr
S ome</w>
poli tical</w>
M an
inclu ding</w>
re p
G o</w>
secon d</w>
C ol
ta ken</w>
f la
be g
sp ir
sc re
dis pu
I D
ty pe</w>
d uring</w>
dou b
as ked</w>
oun d
aren 't</w>
lat er</w>
3 0</w>
Go d</w>
fa v
ans wer</w>
ru n</w>
uc k
like ly</w>
er ing</w>
ne cess
top ic</w>
de ser
e -
ci vi
Wh o</w>
O r
im p
ver i
st ory</w>
num ber
i ously</w>
b ann
g one</w>
h ol
tru th</w>
vi ews</w>
w ise</w>
i p
de b
R a
de ta
s un
expla in</w>
s po
chang ed</w>
al most</w>
ic a</w>
a king</w>
L E
mus li
sel f
5 0</w>
dam n</w>
ge ther</w>
NIGG ER</w>
what ever</w>
fe c
u ally</w>
gener al</w>
us tr
beha vi
mus ic</w>
di e</w>
es peci
M O
A B
m ents</w>
d en</w>
li st
b al
Jo h
dum b</w>
m ist
tri ed</w>
ti s
p hi
h ouse</w>
ab solu
k ill</w>
acc ur
v ari
aa aa
nigg as</w>
t un
w n
t ell
in ci
especi ally</w>
A L</w>
en ding</w>
vo te</w>
pro mo
C H
cl ass</w>
I P
n g</w>
s us
li e</w>
h i</w>
a po
YO U
AR E</w>
si mil
st ro
number ></w>
hum an</w>
D i
< number></w>
to gether</w>
ign or
argum ent</w>
la w</w>
m ur
inclu de</w>
b out</w>
AL L</w>
ga in</w>
lear n</w>
plac ed</w>
t est</w>
righ ts</w>
der ing</w>
al es</w>
H ere</w>
no t
w ouldn't</w>
mil li
sa d</w>
g le</w>
ma il</w>
f ig
so on</w>
sen tence</w>
em ents</w>
ra tion</w>
di es</w>
wr iting</w>
pe c
fu ture</w>
re gi
allow ed</w>
ti n</w>
a tive</w>
comm on</w>
sugg est</w>
re pres
hist or
g oo
An y
provi de</w>
fu n</w>
sy m
pp ed</w>
n al</w>
r un
anti -
ve lo
exper i
y 's</w>
he al
m id
L Y</w>
fin e</w>
go es</w>
ex actly</w>
i '
w ro
d ue</w>
O T</w>
le y</w>
sy stem</w>
nam es</w>
1 2
am er
re si
il ed</w>
wan ts</w>
b ri
at ors</w>
or d
id enti
al one</w>
op en</w>
re pe
di t</w>
he ard</w>
par ty</w>
l er</w>
ag s</w>
T e
O f</w>
li ving</w>
# F
wro te</w>
: p</w>
at ur
K E</w>
p ag
w anna</w>
no min
as ses</w>
vi r
B i
T w
i' m</w>
pu ppe
le 's</w>
b ly</w>
D y
O r</w>
i li
v ement</w>
c ateg
M on
m om
gir ls</w>
en t
tic e</w>
P I
inf o</w>
terr or
intere sted</w>
A Y</w>
mor on</w>
b ig
b an</w>
M ore</w>
fuc ked</w>
pro ject</w>
pro f
how ever</w>
fun ny</w>
na tional</w>
ic an</w>
mo vi
i on
A t</w>
1 1</w>
S ome
tu res</w>
FUCK ING</w>
vi ew
r ing</w>
proble ms</w>
ain 't</w>
S orry</w>
st a
sho ws</w>
in n
claim s</w>
speci fic</w>
pla y
am a</w>
L a
d _
col or</w>
templ ate</w>
medium- dark_skin_tone</w>
y u
with in</w>
intere st</w>
Ar tic
se c
C UN
Americ a</w>
st e</w>
tain ly</w>
bu ll
enti re</w>
invol ved</w>
D is
19 9
de ath</w>
Th en</w>
thin king</w>
#M K
" @user</w>
st ates</w>
O b
H ar
h und
as on</w>
e e
c ity</w>
admin istr
R ussi
att acks</w>
LO L</w>
it self</w>
M A
yy yy
f our</w>
quo te</w>
Ye ah</w>
d om
hal f</w>
of ten</w>
at ch</w>
idio t</w>
h it</w>
al ong</w>
E V
up load
ti g
is ion</w>
de ad</w>
ag re
C K
than k</w>
de velo
h ours</w>
reas on
Is ra
happ ened</w>
inclu ded</w>
co m</w>
k ay</w>
sex ual</w>
le ad</w>
ac tual</w>
ph one</w>
i fic
repor t</w>
p ay</w>
th ro
pre vi
pie ce</w>
f at</w>
F ir
ca tion</w>
cri tic
o h</w>
G et</w>
ma d</w>
el s</w>
he ar</w>
h im
u lar</w>
te am</w>
res pect</w>
ang e</w>
1 2</w>
b la
in dic
wle dge</w>
s l
fa ith</w>
di rect</w>
iz ation</w>
f el
as si
re -
re fu
e th
G e
c ard</w>
B ro
hel p
de al</w>
b and</w>
Com m
ren der</w>
H app
SH IT</w>
reas ons</w>
po sted</w>
rec ent</w>
lo st</w>
C ar
bi o
defin i
wor ks</w>
pla ying</w>
att ention</w>
requ i
fal se</w>
D O
J ew
200 5</w>
1 7
ven 't</w>
a vo
e at</w>
st and</w>
1 4
F a
you 've</w>
c ks</w>
nn nn
it ely</w>
er g
an c
ed uc
cul ture</w>
com pla
pro cess</w>
ran ts</w>
Li ke</w>
1 5</w>
e ld</w>
ex tre
bl ack
p un
al ist</w>
ma o</w>
sign ed</w>
s ites</w>
mo cr
m outh</w>
sm all</w>
spe ak</w>
cer tainly</w>
L E</w>
t ors</w>
R I
o k</w>
curren tly</w>
ma z
B y</w>
ke ep
Ma ybe</w>
coun tries</w>
A fr
f ight</w>
h ur
W all</w>
un less</w>
pr ac
need ed</w>
b en
contro l</w>
discus s</w>
min e</w>
s or
ac tions</w>
and ing</w>
sour ced</w>
respon se</w>
E ven</w>
Be cause</w>
re fore</w>
s and
an i
A A
zz zz
we et</w>
con c
back gr
ha ven't</w>
IL L</w>
lev el</w>
d le</w>
regar ding</w>
j ud
him self</w>
# S
cor rec
pp ing</w>
F or
war ning</w>
Wikipedi a's</w>
cer tain</w>
st an
Bri tish</w>
mul ti
di an</w>
ug ly</w>
obvi ously</w>
you ng</w>
st ar</w>
s ent</w>
bann ed</w>
boo ks</w>
ti vely</w>
SUC K</w>
e ch</w>
g ed</w>
E d
#MK R</w>
par agra
j u
yu yu
hand s</w>
appe ars</w>
T i
simil ar</w>
ex ist</w>
go d</w>
gi ving</w>
c ir
sh oo
ch ild</w>
p g</w>
di d
re co
ag ed</w>
smiling_ eyes</w>
c li
br ing</w>
ty ty
s ort</w>
con struc
soci al</w>
ing_ face_with_
poli cies</w>
poli ce</w>
w al
sign ific
remo ving</w>
pa ren
aw are</w>
mo der
ther wise</w>
ch ed</w>
in sul
St ates</w>
L A
T ur
bab y</w>
happ en</w>
le ge</w>
Happ y</w>
D id</w>
Pe ople</w>
au tom
per haps</w>
OO OO
offic ial</w>
ad a</w>
nor m
ligh t
je ws</w>
Un ited</w>
summ ary</w>
con fir
p at
liter ally</w>
bor n</w>
a il
bo ard</w>
#m k
Isla m</w>
R ed
S te
Fir st</w>
k in</w>
u h</w>
si on
li ed</w>
Jew ish</w>
x ed</w>
su g
ru le</w>
or i
log ical</w>
indi vi
H ave</w>
em ber</w>
en joy</w>
s s
p es</w>
ye ah</w>
d ents</w>
I r
C T</w>
use ful</w>
s qu
ga ve</w>
Musli ms</w>
Dy ke</w>
pho to
j pg</w>
comple te</w>
long er</w>
bu il
do cum
n or</w>
G a
s ol
fi le</w>
" RT</w>
h ug
P r
A M
soci ety</w>
na tion
an e</w>
#B u
A gain</w>
sh ort</w>
at a</w>
publi shed</w>
fic ation</w>
notic ed</w>
1 5
f ood</w>
TH E
C ha
2 4</w>
kill ed</w>
be low</w>
j a
be h
are a</w>
any way</w>
le a
contin u
#Bu ild
tur n</w>
ill b
h h
v al</w>
u ary</w>
T E</w>
necess ary</w>
op er
sur pr
neutr al</w>
contri bs</w>
f fic
ac king</w>
W ith</w>
simp le</w>
heart -
Bl ack</w>
1 6
ill ing</w>
S y
ne y</w>
mon ths</w>
d re
st ri
te ch
ter ms</w>
ti z
l ate</w>
appreci ate</w>
wor th</w>
g y
edit ed</w>
ex plan
2 2
p tion</w>
T O
d ers</w>
w w
sp ace</w>
1 3
pl es</w>
ap er</w>
wat ching</w>
S ince</w>
200 6</w>
ser ious</w>
is o
or ding</w>
t agg
c ut</w>
b loo
H el
on d</w>
S J
T I
p end
int el
WW WW
G O
fe male</w>
W om
comp any</w>
L ook</w>
R et
red neck</w>
rec ei
re g
K e
in s
cou ple</w>
defin itely</w>
requ e
S E
vic ti
sk ull</w>
sh ouldn't</w>
bus iness</w>
# s
C H</w>
won der</w>
S p
g s</w>
st re
G oo
mem bers</w>
cra zy</w>
TH AT</w>
differen ce</w>
ri ed</w>
illb illy</w>
se s
mo ved</w>
beh ind</w>
po or</w>
red _
#mk r</w>
partic ular</w>
U K</w>
s tic
contro ver
su per
ra pe</w>
obvi ous</w>
sho t</w>
maj or</w>
not ability</w>
iver sity</w>
Wi ki</w>
P a
foo t
st y</w>
en try</w>
N i
im ag
S ch
pres ent</w>
kno ws</w>
sci enti
clo se</w>
refu ge
U R
G r
n ic
l ying</w>
s ick</w>
accur ate</w>
W A
Af ter</w>
sug ge
lo ck</w>
ac ked</w>
A n</w>
posi tive</w>
f as
#Build The
fi eld</w>
f o
M ic
be au
G en
st ly</w>
s ong</w>
jus ti
p as
graph y</w>
f er</w>
Wh ere</w>
an a</w>
smiling_face_with_ heart-
aren tly</w>
we b</w>
k a</w>
an im
for ce</w>
ca r</w>
gam es</w>
it ary</w>
es us</w>
E DI
b y
I R
sh it
ta kes</w>
t a</w>
stat us</w>
as king</w>
T R
ch ance</w>
M r</w>
In ter
Re gar
se par
deci de</w>
c ool</w>
kno wledge</w>
defini tion</w>
ca re
ser iously</w>
ho ld</w>
fil m</w>
1 6</w>
1 4</w>
ob jec
ci al</w>
ti ll</w>
dis agree</w>
E W</w>
b le
acc ept</w>
do wn
us ually</w>
ro ss</w>
, 000</w>
com pe
er al</w>
in cre
for tun
c al
and a</w>
pro per
absolu tely</w>
st ated</w>
sit uation</w>
con ver
s ound</w>
milli on</w>
ef for
rec ently</w>
go tta</w>
do g</w>
M ay</w>
#BuildThe Wall</w>
e f</w>
F in
oo oo
A si
oul d
lar ge</w>
W I
P l
t f</w>
doub t</w>
wor ked</w>
medium _skin_tone</w>
it ted</w>
mis sion</w>
M c
t t</w>
fi ve</w>
con ne
o o</w>
clus ion</w>
t in
f igh
de sp
ac ting</w>
intere sting</w>
vi o
ail able</w>
g us
n er
ur ch</w>
ou d</w>
maj ority</w>
T ake</w>
t ter</w>
la tions</w>
de stro
resul t</w>
autom a
T S</w>
k ers</w>
pro gra
in e
H O
on y</w>
olu tion</w>
ex pres
t to</w>
lo s
h an
ba g</w>
ver age</w>
b igg
Ch ar
Joh n</w>
rep ly</w>
dis rup
beli ev
. com</w>
H is</w>
C or
d on
ed ing</w>
sup posed</w>
fi x</w>
per io
S top</w>
t witter</w>
pro of</w>
E T</w>
f le
1 3</w>
paragra ph</w>
ed _
di o</w>
see ing</w>
sub jec
st op
qu e</w>
YOU R</w>
out side</w>
CUN T</w>
. jpg</w>
S m
J ap
c ited</w>
L et</w>
spe ech</w>
ra is
stra ight</w>
v s</w>
me et</w>
he y</w>
t ou
E ver
li cen
bull shit</w>
T a
te red</w>
k new</w>
at _
acc ording</w>
ug g
G ree
viol ence</w>
at er</w>
religi on</w>
r as
li l</w>
tr an
fag go
b ing</w>
v ol
re st
an ity</w>
gener ally</w>
19 8
tell ing</w>
movi e</w>
all s</w>
non sense</w>
eas y</w>
provi ded</w>
sm ent</w>
man _
iz ing</w>
o t</w>
l ack</w>
S ha
B O
ti l
A D
wee k
R om
self -
pro mis
200 7</w>
Pro ject</w>
: P</w>
s is</w>
est ab
ug h
The re's</w>
T V</w>
wor se</w>
RA P
any more</w>
pos si
ma in
mor ning</w>
loo ked</w>
ac e
: )</w>
pro ve</w>
A M</w>
mo ther</w>
ha ir</w>
exper im
1 7</w>
ar ts</w>
appe ar</w>
con om
200 8</w>
red _heart</w>
C oun
s uck</w>
inter net</w>
al though</w>
an ts</w>
c ant</w>
b ility</w>
F rom</w>
jo ke</w>
g er</w>
charac ter</w>
av ailable</w>
int ro
m es</w>
la d</w>
bre ak</w>
ar k</w>
con text</w>
Musli m</w>
vi d</w>
j our
B E
G i
su it</w>
lo ad</w>
al low</w>
to tally</w>
popu lation</w>
Nigg er</w>
thin ks</w>
am s</w>
sh e's</w>
C E</w>
pro per</w>
ing ly</w>
il legal</w>
er ous</w>
fr ont</w>
s on
str ong</w>
Mo st</w>
fa ke</w>
t ags</w>
V i
sci ence</w>
in ese</w>
pri m
k y</w>
deb ate</w>
spir acy</w>
b al</w>
opin ions</w>
c ent</w>
I ts</w>
sh are</w>
behavi or</w>
int en
fa ir
W elcome</w>
ph ys
h ood</w>
be at</w>
F A</w>
un e</w>
e arly</w>
g lo
2 5</w>
g he
c ing</w>
avo id</w>
m as
ab or
w ed</w>
B U
mo de
dispu te</w>
c le</w>
no body</w>
we 're</w>
str ic
e mail</w>
wi fe</w>
du de</w>
immig rants</w>
ev il</w>
automa tically</w>
oo ls</w>
f oc
attemp t</w>
up on</w>
to m</w>
2 4
intro duc
fin ally</w>
ad ver
explan ation</w>
ch an
ari ly</w>
ac tive</w>
y_ face</w>
ter nal</w>
sh or
the tic</w>
ep iso
201 0</w>
user name</w>
accep ted</w>
B L
you 'll</w>
ve red</w>
B S</w>
ret ur
a maz
some times</w>
it al</w>
o therwise</w>
on line</w>
S tu
G H
me ant</w>
descri ption</w>
civi l</w>
H ist
Ever y
c us
f ree
Po li
ab use</w>
mean ing</w>
gen der</w>
cont act</w>
sand box</w>
hug e</w>
ti ful</w>
dele ting</w>
exc ept</w>
po sts</w>
grou ps</w>
sym bo
nigg ers</w>
bir th
musli m</w>
al ing</w>
f it</w>
impro ve</w>
E N</w>
n u
O K</w>
qu ality</w>
upload ed</w>
gi ves</w>
di r
us h</w>
experi ence</w>
ex pect</w>
R u
T A
pre si
i ther</w>
On ly</w>
to wards</w>
the ory</w>
accep table</w>
a ir
c ele
li ct</w>
bi ased</w>
D ay</w>
rever ting</w>
An y</w>
ri ble</w>
N POV</w>
spe ak
2 .
en ting</w>
ag ue</w>
ti st</w>
DI E</w>
sh ut</w>
vandal ize</w>
i or</w>
com pu
o logy</w>
sen d</w>
Wh ile</w>
s li
F ran
Che ers</w>
o l</w>
har as
t ar
it ch</w>
I M
mom ent</w>
fuck in</w>
1 .
the refore</w>
pp er</w>
li ves</w>
Hel p</w>
tr ump</w>
l mao</w>
ch oo
C en
vari ous</w>
off en
rec ord</w>
x es</w>
bu l
N O</w>
ser ies</w>
' all</w>
real ize</w>
al m
A pri
J esus</w>
previ ous</w>
tim ate</w>
happ ens</w>
ch i
Apri l</w>
w it</w>
c ouldn't</w>
ho t</w>
bo ys</w>
A no
underst anding</w>
pho to</w>
as ser
reco gn
p ass</w>
ele c
b unch</w>
ac ross</w>
al bu
f ish</w>
Wor ld</w>
ter min
ki d</w>
is on</w>
gr inn
acc oun
co ck</w>
S P
st ers</w>
run ning</w>
cu te</w>
r ic
k iss</w>
ed _face</w>
al -
U P</w>
Tw at</w>
di ed</w>
cri me</w>
o kay</w>
is tic</w>
ug ht</w>
i ed</w>
li er</w>
ra tion
k ing_face</w>
M i
ad y</w>
s of
: d</w>
pro pag
i er</w>
faggo ts</w>
dis gus
y -
ghe tto</w>
tri bu
ish ed</w>
D u
4 0</w>
in ser
deci ded</w>
cre ating</w>
administr ator</w>
Isra el</w>
liber al</w>
ill s</w>
1 8</w>
help ful</w>
bl acks</w>
Euro pe
sho le</w>
mon th</w>
for ward</w>
stand ard</w>
F uc
sugg es
auth or</w>
W ar</w>
perio d</w>
multi ple</w>
le f
ari an</w>
AS S</w>
val id</w>
s al
it ting</w>
to wn</w>
f an</w>
an k</w>
re ality</w>
rela tion
admin s</w>
hund red_
enc y</w>
ben ef
po sting</w>
w on</w>
me e
inde ed</w>
assu me</w>
pu tting</w>
Per haps</w>
Ano ther</w>
ti red</w>
dic ul
wor st</w>
wat er</w>
re gu
direc tly</w>
light _skin_tone</w>
Christi an</w>
M an</w>
V an</w>
L et
B u
W AN
T witter</w>
I m</w>
cen tr
P resi
wee ks</w>
d ata</w>
B a
200 4</w>
ro om</w>
paren ts</w>
ton ight</w>
am ong</w>
Lo l</w>
y er</w>
M or
H e's</w>
se qu
or ial</w>
deser ve</w>
11 11
_ mark</w>
v el</w>
symbo l</w>
fig ure</w>
bi as</w>
be t</w>
po t
ignor ant</w>
erg y</w>
na tive</w>
1 9</w>
in es</w>
as soci
th o</w>
w ing_
s ounds</w>
wh ites</w>
ar gu
acc us
B IT
d -
tra di
norm al</w>
ll ing</w>
gra phi
SJ W</w>
A C
G O</w>
Ob ama</w>
de l
c ite</w>
un k</w>
dif fic
0 .
R es
hy po
ren ch</w>
pe cted</w>
b om
z er
inde pend
bu y</w>
pur pose</w>
i ti
hundred_ points</w>
emp lo
ton gue</w>
feel ing</w>
# love</w>
fa ther</w>
n one</w>
cit ation</w>
or row</w>
di sa
e conom
u te</w>
is la
po w
Ge or
le gi
2 3</w>
est ly</w>
a _
pic tures</w>
an no
OU T</w>
wr it
sex ist</w>
p t</w>
vo c
contribu ting</w>
Ger man</w>
n e</w>
cra p</w>
stat ements</w>
enti al</w>
cop y</w>
co ver</w>
wh at's</w>
tr y
cen tur
artic le's</w>
h at
con tr
li c</w>
clu b</w>
bor der</w>
am es</w>
list en</w>
ustr al
ed om</w>
as shole</w>
ver s</w>
um p
tr ou
ster n</w>
mil itary</w>
he av
S pe
tagg ed</w>
inter pre
D on
num bers</w>
loc al</w>
T u
M ac
suc ks</w>
C r
speci al</w>
fic ally</w>
0 s</w>
m ic</w>
con spiracy</w>
cri min
2 1</w>
L L
Do es</w>
ti tu
categ ory</w>
t ac
addi tion</w>
re le
te x
# P
de s
Euro pe</w>
on y
person ally</w>
em in
z is</w>
nam ed</w>
19 7
tr ust</w>
O H</w>
pe op
for get</w>
ci tiz
# G
mis s</w>
K ER</w>
qu ali
t wee
produc e</w>
m as</w>
d ual</w>
Wom en</w>
partic ip
att le</w>
W HA
HA TE</w>
cas es</w>
w illing</w>
b b
ri dicul
f ra
J an
se ason</w>
gu n</w>
S O
ut es</w>
C ro
gl asses</w>
c oo
m ag
R ev
n ature</w>
c un
N ews</w>
I D</w>
moder n</w>
al ter
WI K
T ra
A pp
pri v
l a</w>
deta ils</w>
L ist</w>
n atur
n ation</w>
I I</w>
@ user
hand s_
con v
pa id</w>
am ount</w>
T W
ther n</w>
sur render</w>
br o</w>
apo logi
FA T</w>
th ird</w>
lo se</w>
plac es</w>
eas ily</w>
bas ically</w>
men tal</w>
blo cking</w>
S ur
cit ations</w>
ach ed</w>
idio ts</w>
un i
it ler</w>
S outh</w>
Re al</w>
A ug
separ ate</w>
f er
D ON
c ell
wa iting</w>
ou th
w ed
refuge es</w>
inf lu
pro posed</w>
m et</w>
k et</w>
b es</w>
signific ant</w>
P u
chang ing</w>
ref er</w>
in ation</w>
im medi
B A
or k</w>
Na tional</w>
week end</w>
fortun ately</w>
an al
DI RE
Americ ans</w>
B C</w>
sec tions</w>
f s</w>
veri fi
E A
s mo
estab li
beau tiful</w>
ti ves</w>
ra ped</w>
S A
M M
tom orrow</w>
St ate</w>
S ty
sho wing</w>
: 3
sh e
con serv
ev ent</w>
E X
p rec
ne ar</w>
st ance</w>
op en
app arently</w>
N ever</w>
B est</w>
poin ted</w>
o d
spe c
Ju ly</w>
th ats</w>
follow ed</w>
Wiki Project</w>
serv ice</w>
n on</w>
indic ate</w>
P al
inv es
M arch</w>
br ought</w>
b ol
argum ents</w>
e mo
disgus ting</w>
Let 's</w>
so ck
k is
ari es</w>
Can ada</w>
respon d</w>
re lease</w>
wi d
to tal</w>
pa thetic</w>
mid dle</w>
Ch r
in c
In dia</w>
Gre at</w>
er a</w>
smiling_face_with_heart- eyes</w>
mo vement</w>
li z
w ell
th ous
swe at_
sk in</w>
op h
add res
I M</w>
de mon
con stitu
ac a
200 9</w>
19 6
t ory</w>
gr ound</w>
a head</w>
ne ga
v ent</w>
vio lation</w>
ear lier</w>
Ch inese</w>
C ould</w>
o se</w>
R e</w>
c y
: D</w>
s n
lo ws</w>
le ct</w>
Na zi</w>
wi ki
ste p</w>
le ts</w>
dec ision</w>
consi st
E l
S T</w>
repor ted</w>
an tly</w>
) ;</w>
u res</w>
HAHA HAHA
ri st
NO W</w>
: 5
be y
than k
r ant</w>
bu tt
B e</w>
poin t
A ustral
res pec
mist ake</w>
expla ining</w>
bo y
ER E</w>
C ateg
si des</w>
: 4
2 2</w>
be l</w>
L ove</w>
stand ards</w>
di c</w>
E very</w>
til des</w>
in ning</w>
critic ism</w>
bo t
thre at
gr ad
exist ing</w>
Goo gle</w>
publi c
A b
religi ous</w>
mess ages</w>
is ing</w>
d less</w>
lo ts</w>
Fuc king</w>
p sy
pla yed</w>
call s</w>
amaz ing</w>
vis ion</w>
no w
tur ned</w>
he arts</w>
A le
n ar
a ks</w>
stic k</w>
: 0
conf lict</w>
pr oud</w>
prof es
wid th</w>
r ich</w>
ound -
o g
bo t</w>
t weet</w>
h un
d ated</w>
cho ice</w>
birth day</w>
ad ly</w>
wom an
c er</w>
S i
ul arly</w>
th us</w>
am big
s ca
black _heart</w>
propag anda</w>
val ue</w>
fac ep
histor ical</w>
DIRE CT</w>
puppe t</w>
D O</w>
B ul
rac ism</w>
No v
m al
adv ice</w>
dir ty</w>
bas ic</w>
N ew
L oo
Artic le</w>
y al</w>
on e's</w>
g lad</w>
coun t</w>
la w
W ar
d 's</w>
your s</w>
g ing</w>
enti rely</w>
con ven
O c
lead ing</w>
g ress</w>
for d</w>
en ces</w>
ef fec
WHA T</w>
De mocr
s pl
pres s</w>
hom o
RE DIRECT</w>
spe aking</w>
W ould</w>
Presi dent</w>
sa ve</w>
ki ke</w>
lin ked</w>
enc our
al d</w>
tru ly</w>
me ly</w>
me dic
ide as</w>
en tation</w>
S U
min utes</w>
S co
op s</w>
intel lig
F RE
Aug ust</w>
descri bed</w>
C unt</w>
" I</w>
fav or
cle an
cam pa
adver ti
F ur
F OR</w>
V er
ty pes</w>
mo ving</w>
ch all
contribu te</w>
bey ond</w>
ag ing</w>
a red</w>
M in
J EW</w>
2 3
f ast</w>
reason able</w>
hand _
re view
qu ick</w>
pen is</w>
m ac
ir relevant</w>
ha ha</w>
backgr ound-
r s</w>
mo stly</w>
bro ke</w>
s il
en ergy</w>
background- color</w>
ad s</w>
ne l</w>
le t's</w>
jo in</w>
at tr
cl ari
some body</w>
so li
W a
Un iversity</w>
no tes</w>
F r
t roll
sh all</w>
indivi dual</w>
P ri
prote ct</w>
T em
C re
R ob
BIT CH</w>
F ri
D am
speci fically</w>
mur der</w>
albu m</w>
a th
de cl
form er</w>
sc en
mis sing</w>
ign ore</w>
2 7</w>
am ing</w>
poli tics</w>
ha n</w>
w alk</w>
err or</w>
US T</w>
m ann
hur t</w>
bra in</w>
) :</w>
ev ents</w>
ar gue</w>
Ch ina</w>
offic e</w>
blo g</w>
you 'd</w>
popu lar</w>
d ang
GH T</w>
Bi g</w>
pa ti
ed ly</w>
M any</w>
fa g</w>
un ity</w>
US A</w>
ridicul ous</w>
per fect</w>
musli ms</w>
fe ar</w>
accoun ts</w>
S O</w>
us h
T ran
ll ed</w>
feren ce</w>
ac ted</w>
aaaa aaaa
No te</w>
z a</w>
ra in</w>
um b
diffic ult</w>
ac ts</w>
fre edom</w>
J ew</w>
enc ed</w>
Artic les</w>
th ough
k ept</w>
ab s</w>
su m
sle ep</w>
P or
D es
str ong
L D</w>
d ol
ch ic
bi a</w>
C A
fri end
M at
la ws</w>
dis h</w>
FA GG
al le
bi an</w>
ing_face_with_ smiling_eyes</w>
f all</w>
u es</w>
ration ale</w>
n d</w>
imag ine</w>
ha s
ain t</w>
8 .
ma tion
Qu es
C ri
me rely</w>
Red neck</w>
prim ary</w>
f ar
S ta
O p
p ill
w el
si ze</w>
ep tion</w>
resul ts</w>
possi bly</w>
partic ularly</w>
oun ded</w>
c at
s ou
ey e</w>
Th ose</w>
Sty le</w>
PI G</w>
B lock</w>
do c
D E
l uck</w>
stu dy</w>
K o
# T
x ing</w>
ha m</w>
e li
y el
pic al</w>
figh ting</w>
Hist ory</w>
fe atu
comp an
ste red</w>
na sty</w>
f ying</w>
on don</w>
ON E</w>
igh t
hon est</w>
P la
an ese</w>
R ight</w>
3 3
ra id</w>
pl an</w>
fin al</w>
be came</w>
W ILL</w>
some where</w>
ro m
we ight</w>
C i
sion al</w>
desp ite</w>
F ull</w>
De c
star ting</w>
ren t</w>
a ir</w>
un block</w>
i ent</w>
fi es</w>
in correct</w>
titu de</w>
cour t</w>
ag end
po l
ing er</w>
aca dem
yyyy yyyy
controver si
be l
J une</w>
we ird</w>
ex ternal</w>
bro ther</w>
ES T</w>
d ad</w>
P P
AG A</w>
err ing</w>
un iver
episo de</w>
cle an</w>
ac hi
W ill</w>
p ic</w>
mode l</w>
choo se</w>
ne igh
sen ti
o -
victi m</w>
tiv ity</w>
te ac
Wh at's</w>
wing_ a_
wing_a_ kiss</w>
vo ted</w>
h u
ID S</w>
FAGG OT</w>
high ly</w>
th row</w>
c at</w>
p aper</w>
ug s</w>
l arg
we ar</w>
da ugh
F rench</w>
w all</w>
N A
B re
war ring</w>
us ion</w>
ex cla
dro p</w>
Europe an</w>
C l
proper ly</w>
n ic</w>
fel t</w>
th read</w>
stu dents</w>
sex u
sa fe</w>
nnnn nnnn
g un
bot tom</w>
I ON</w>
sun glasses</w>
on ic</w>
S ep
tion ally</w>
gre at
W ow</w>
tion ing</w>
be long</w>
effor t</w>
H ol
sho wn</w>
con tain
al ists</w>
b t
R i
fla g</w>
H er</w>
y 'all</w>
G A</w>
tur al</w>
extre mely</w>
lea ving</w>
jour n
it ate</w>
in iti
W est
6 .
1 st</w>
scienti fic</w>
mo m</w>
li kes</w>
Fe el</w>
FUCK FUCK
sa tion</w>
re ma
p ra
Y ork</w>
O ur</w>
z er</w>
y e</w>
tr a</w>
compu ter</w>
V o
W al
in no
bas is</w>
De le
tr ans</w>
EDI A</w>
yuyu yuyu
tt en</w>
n ers</w>
fam ili
acc ess</w>
WIK IP
inves tig
ang ry</w>
Br it
Wh ich</w>
M u
Ke ep</w>
201 2</w>
nega tive</w>
O k</w>
r ound</w>
ill ed</w>
Categ ory</w>
A u
centur y</w>
c a</w>
logi c</w>
2 9</w>
zzzz zzzz
c o</w>
an g</w>
Man ual</w>
m m</w>
ri d</w>
presi dent</w>
par ts</w>
Russi an</w>
2 6</w>
tyty tyty
stre et</w>
sh r
m ous</w>
er 's</w>
concer ns</w>
t ent</w>
par t
organ ization</w>
bl ue</w>
Nor th</w>
pe fully</w>
a zi</w>
trou ble</w>
suppor ted</w>
sm ile</w>
prote cted</w>
M il
ef fect</w>
ed s</w>
201 6</w>
le ction</w>
pa red</w>
U M
4 .
re direct</w>
ma r</w>
bu d
promis e</w>
en se</w>
wor l
d i</w>
AL L
se tt
charac ters</w>
bla me</w>
ran dom</w>
r a</w>
immedi ately</w>
w ood</w>
discus sed</w>
concer ned</w>
Jan uary</w>
cont est</w>
conf used</w>
adm it</w>
relation ship</w>
pic k</w>
kill ing</w>
ke ts</w>
H H
low er</w>
bl u
Gree k</w>
2 8</w>
vo ice</w>
use less</w>
tion ary</w>
er t</w>
construc tive</w>
conc ept</w>
I tal
te e</w>
b o</w>
Th ey
? "</w>
Any way</w>
es ome</w>
5 .
sp or
it e
f ans</w>
se mi
e g
C RAP
to ber</w>
ho le</w>
m er</w>
ind us
haha haha
facep alm
facepalm ing_
in clusion</w>
tro ll</w>
sch ol
pill ars</w>
F o
B E</w>
pres sion</w>
H ouse</w>
W est</w>
Li ber
claim ed</w>
no se</w>
h illbilly</w>
che cked</w>
pe ace</w>
of fe
i ds</w>
foot ball</w>
R ep
sp i
excla mation
disrup tive</w>
app ly</w>
agend a</w>
M ex
# b
high er</w>
P ol
de mocr
T ri
CRAP CRAP
read ers</w>
mon key</w>
independ ent</w>
el se
h op
descri be</w>
Che ck</w>
smiling_face_with_ sunglasses</w>
ev en
Se con
C I
won dering</w>
se ly</w>
r ase</w>
off er</w>
fa ult</w>
heal th</w>
wa ste</w>
T im
F C</w>
ch arg
O P</w>
G E</w>
quo tes</w>
we aring</w>
ne ither</w>
h oo
en ty</w>
c up
Ac tually</w>
lo g</w>
il er</w>
h our</w>
Da vid</w>
le _
for ced</w>
claim ing</w>
compan ies</w>
al ign</w>
dic k
surpr ised</w>
re comm
R f
rele ased</w>
f an
cu z</w>
exam ples</w>
em ed</w>
EV ER</w>
re pu
ash ing_
st anti
cur ity</w>
F l
E ar
d ates</w>
Some one</w>
ele ction</w>
do or</w>
ne t
K ING</w>
In dian</w>
s na
r r
WIKIP EDIA</w>
v a</w>
cr u
com par
Nov ember</w>
C ap
201 5</w>
v il
pu ll</w>
An g
A m
woman _
c ore</w>
9 .
suc cess
pre fer</w>
inf o
soli d</w>
sm art</w>
referen ced</w>
pa in</w>
o p</w>
keep ing</w>
O M
verifi able</w>
fa iled</w>
J e
dri ve</w>
gr and
who se</w>
ing ton</w>
expla ined</w>
all ing</w>
pp y</w>
con duc
U U
m ass</w>
id ity</w>
ep s</w>
ca tions</w>
Russi a</w>
P h
M er
Oc tober</w>
H on
s it</w>
h us
ant as
tem ber</w>
sa tis
educ ation</w>
sur vi
stand ing</w>
poli tic
man i
m ales</w>
je w</w>
buil ding</w>
B ra
wi de</w>
igh ts</w>
P age</w>
No t
B T
sp end</w>
n star</w>
ing ing</w>
da y
af raid</w>
Asi an</w>
sy n
bir d</w>
wor ry</w>
r ate</w>
li sts</w>
F i
ta tions</w>
requi red</w>
il ing</w>
feel ings</w>
Sh ould</w>
u u
ol er
o ci
femin ist</w>
Wikipedi an</w>
201 7</w>
exclamation _mark</w>
N E
se m
develo p
Can a
An ti
campa ign</w>
ag e
we ar
se cu
s illy</w>
hon estly</w>
ear th</w>
D Y
8 0</w>
op ho
n ings</w>
Ca tho
3 .
de si
C am
prac tice</w>
mar ried</w>
li t</w>
favor ite</w>
con di
T y
F re
ta x</w>
col lege</w>
S S
P S</w>
B er
on to</w>
beg inning</w>
F F</w>
se y</w>
ro le</w>
C ity</w>
au l</w>
qu i
dom in
g res
en e
De ar</w>
summ er</w>
or ist</w>
g ree</w>
201 1</w>
offen sive</w>
a p</w>
R ic
me tho
k k
ex ists</w>
re main</w>
po sing</w>
G etting</w>
res ol
de p
cre ation</w>
WWWW WWWW
! "</w>
respon sible</w>
heal thy</w>
buil t</w>
un signed</w>
ra p
thank ful</w>
read s</w>
in appropriate</w>
f li
equ al</w>
su ffic
mo tiv
keep s</w>
jo bs</w>
bigg est</w>
na zi</w>
en tal</w>
cre di
co de</w>
jud g
exc use</w>
ES S</w>
p x</w>
haras sment</w>
sub stanti
laug h</w>
com b
W atch</w>
C ur
B oo
re am</w>
ell s</w>
Re ally</w>
ref erring</w>
controversi al</w>
F ol
# t
t end</w>
hom e
pl ate</w>
butt on</w>
… "</w>
lat est</w>
cl assi
though ts</w>
g ri
ER S</w>
6 .1
# f
tis m</w>
st al
read er</w>
Jap anese</w>
min or</w>
ch urch</w>
J ames</w>
IT H</w>
H er
he ld</w>
Sep tember</w>
Ger many</w>
4 5</w>
it or</w>
in side</w>
bloo d</w>
S en
recei ved</w>
por n</w>
ex ten
as sa
b lin
att ers</w>
So ci
P E
s a</w>
mar ri
le n</w>
anno ying</w>
ch at</w>
g er
c ast</w>
ad es</w>
T ex
pr inci
fa ther
e ating</w>
an ces</w>
C AN</w>
natur al</w>
gu il
every body</w>
a verage</w>
M E
try na</w>
qu ick
foc us</w>
de li
cri tical</w>
a f</w>
V and
Ti me</w>
S ci
Afr ican</w>
F ag
per fec
in ks</w>
def end</w>
6 0</w>
some how</w>
regar ds</w>
import ance</w>
W illi
lim ited</w>
demon str
P at
e ve</w>
cor por
Ad min
h es
any where</w>
Par ty</w>
discus sions</w>
H ope</w>
Dec ember</w>
shi ps</w>
les s
ha el</w>
ra ised</w>
B as
thre at</w>
e k</w>
di ver
aga z
li ked</w>
b ar</w>
anim als</w>
G ET</w>
ic ans</w>
S till</w>
retur n</w>
ma p</w>
licen se</w>
Sy ri
hel ping</w>
bo ther</w>
ash ed</w>
Dam n</w>
C ON
su pre
o ts</w>
it ch
en 's</w>
backgr ound</w>
ing u
ro ad</w>
er _
K ore
D on</w>
establi shed</w>
9 0</w>
# C
S up
pp le</w>
m ess</w>
head s</w>
behavi our</w>
acc used</w>
M IN
K ar
A F
fin ding</w>
at titude</w>
al leg
B LO
ye ster
d ence</w>
v el
for got</w>
In di
; )</w>
p is
e uro
we ak</w>
it able</w>
go tten</w>
eas ier</w>
N A</w>
bi h
P C</w>
M y
M is
L ondon</w>
uck y</w>
terror ist</w>
at ory</w>
arch i
LI KE</w>
2 5
You Tu
J us
D r
w o
ti sts</w>
K S</w>
A IDS</w>
y an</w>
re land</w>
no ted</w>
F ree</w>
ph rase</w>
g on</w>
ann y</w>
H um
por t</w>
g et
ex act</w>
eth nic</w>
ar bit
ug h</w>
so ck</w>
reque sting</w>
te sts</w>
famili ar</w>
discus sing</w>
H al
wor thy</w>
twee ts</w>
d at</w>
d ark</w>
re duc
in o</w>
heav y_
Qu e
K ing</w>
G ir
#M AGA</w>
pri vi
de sc
C our
priv ate</w>
fol ks</w>
Al though</w>
A t
ci ent</w>
Afr ica</w>
photo s</w>
ed on
cor rup
C op
A S</w>
ong s</w>
m fa
int ended</w>
vis it</w>
st ant</w>
C le
Bar k</w>
wear y_face</w>
rolling_ eyes</w>
ro ck</w>
face_with_ rolling_eyes</w>
s day</w>
legi timate</w>
ann oun
tou ch</w>
pro pos
lo cked</w>
identi ty</w>
accus ations</w>
k en
er n</w>
agre ed</w>
S un
M IL
H illbilly</w>
C ome</w>
201 4</w>
re min
br uary</w>
Regar ds</w>
new sp
W ITH</w>
mus ic
k ic
Eng land</w>
d_ eyes</w>
bl at
sweat_ symbol</w>
spl ashing_
splashing_ sweat_symbol</w>
ha m
He re's</w>
res our
ack no
u d</w>
se ll</w>
tw ice</w>
t _
Me dia</w>
# N
shoo t</w>
k o
it al
b a</w>
and _
tre at
po p</w>
# i
cir cum
prote ction</w>
indivi du
No thing</w>
su b</w>
re ve
pre vent</w>
ru de</w>
min ority</w>
m ate</w>
M id
Christi ans</w>
fair ly</w>
S I
pr in
mat ch</w>
ing_ head</w>
char ge</w>
G ol
remo val</w>
y ers</w>
tr ack</w>
Y oun
P H
Fe bruary</w>
AL LY</w>
' T</w>
wh it
suppor ting</w>
s kin
care er</w>
at edly</w>
9 9</w>
v a
pus hing</w>
us ual</w>
n es
C y
pp l</w>
> "</w>
fi xed</w>
d in
comp li
thous ands</w>
on e
ne arly</w>
h o</w>
concer n</w>
an ced</w>
mann er</w>
Sch ool</w>
D S</w>
ga tions</w>
su ff
b ic
us age</w>
l ands</w>
en ter
cun ts</w>
w tf</w>
bu ild</w>
yester day</w>
perfec tly</w>
f ool</w>
dou ble</w>
and er</w>
D r</w>
rec or
ord in
li fe
j er
cele br
W at
U T</w>
Can 't</w>
kno wing</w>
fore ver</w>
appreci ated</w>
administr ators</w>
I F</w>
Fag got</w>
g row</w>
fas hi
L u
pe d
fa il</w>
O ffic
wor k
t es
swe ar</w>
sch ools</w>
pres ented</w>
d den</w>
commun ic
ang er</w>
R ed</w>
On ce</w>
pp ing_
l o</w>
ha ir
consi dering</w>
absolu te</w>
templ ates</w>
mis sed</w>
ig no
auth ority</w>
B I
sp ent</w>
mee ts</w>
Ir ish</w>
sub m
spe edi
R S</w>
G A
s w
V ide
Re member</w>
nomin ation</w>
ca ught</w>
wor ding</w>
me as
exp lo
che cking</w>
H un
deta il</w>
de d_
cr y</w>
are as</w>
t an
has n't</w>
f lo
_ with_
Re ad</w>
D D
s en</w>
ra in
offic i
ate ful</w>
tem por
on -
mas sive</w>
h en
HA VE</w>
pro ven</w>
f ro
exist ence</w>
wh ore</w>
sc um</w>
WAN KER</w>
Any one</w>
E ast</w>
de ep</w>
P rec
2 .1
solu tion</w>
fol ded_
conver sation</w>
a -
sp ark
ma tic</w>
Geor ge</w>
3 1</w>
n ia</w>
m atters</w>
bir th</w>
T ru
and ed</w>
YouTu be</w>
m ic
for ms</w>
ad voc
tre ated</w>
shr ugg
daugh ter</w>
T or
repe atedly</w>
d ary</w>
7 .
tell s</w>
ad op
well -
ver tic
tri al</w>
j i
experim ent</w>
B ab
<url >"</w>
ill a</w>
W T
M al
C C
as es</w>
aren t</w>
fel low</w>
contribu tion</w>
ca res</w>
sugge sted</w>
ref er
oo o</w>
follow ers</w>
cen sor
P RO
1 .1
tech n
pres sed</w>
h h</w>
S im
# K
tre at</w>
ti vi
pus h</w>
ho st</w>
# D
any body</w>
st ating</w>
st ard</w>
col l
Isla mic</w>
per form
aw esome</w>
H itler</w>
Go t</w>
Ac cor
profes sional</w>
op hi
fam ous</w>
de mo
R R</w>
shoo ting</w>
ren 't</w>
gen e
T ut
st an</w>
d is</w>
Isra el
IS IS</w>
reg ard</w>
op port
ing dom</w>
W as</w>
M en</w>
B ur
v ice</w>
r d</w>
poin ting</w>
heavy_ black_heart</w>
correc tly</w>
E dit</w>
sup pose</w>
progra m</w>
kin da</w>
face_ blo
face_blo wing_a_kiss</w>
fas c
vic es</w>
sugges tion</w>
sp on
ori ties</w>
le tting</w>
an ony
P re
O P
w oo
vertic al-
vertical- align</w>
speedi ly</w>
oun ding</w>
insul t</w>
goo d
ON G</w>
in king</w>
form at</w>
fle x
ber g</w>
produc t</w>
happ ening</w>
No body</w>
tal k
comm er
previ ously</w>
is hing</w>
# L
v an
inclu des</w>
ali for
B et
terror ists</w>
jud ge</w>
F emin
stop ped</w>
g or
clo sed</w>
be long
w est</w>
regar dless</w>
mon ey
V ir
V I
rac ial</w>
O kay</w>
Ch urch</w>
AR D</w>
5 5</w>
mu zz
co vered</w>
ch risti
G ra
E a
z e
victi ms</w>
sp am</w>
T T
po st
ing e</w>
gu ide</w>
f ran
a ther</w>
F OR
B itch</w>
201 3</w>
sti c</w>
smiling_face_with_ smiling_eyes</w>
ou tr
men tally</w>
ci ties</w>
bus y</w>
b ase</w>
pro -
goo gle</w>
confir m</w>
W N</w>
ALL S</w>
A bout</w>
vo ting</w>
ul ly</w>
sus pect</w>
re r</w>
go al</w>
c lim
femin ists</w>
do gs</w>
P i
re ds</w>
phi los
ar ro
spe lling</w>
sha me</w>
ri es</w>
re place</w>
m in</w>
do w</w>
adverti sing</w>
vir on
u n</w>
st or
op pos
l eng
bit ch
admin ist
Ga b</w>
F ile</w>
top ics</w>
b c</w>
al _
W E</w>
T AB
Af D</w>
vo tes</w>
be coming</w>
ac ci
Mic hael</w>
ser ve</w>
re ach</w>
jus tice</w>
di sp
destro y</w>
IS T</w>
consi der
I reland</w>
H E</w>
th umb
ja il</w>
sp read</w>
quick ly</w>
an a
inst ance</w>
graphi es</w>
bro ken</w>
appro ach</w>
S he's</w>
In stead</w>
Ch rist
who m</w>
es senti
pl ann
ca used</w>
bih day</w>
Tut orial</w>
conserv ative</w>
S tr
zer o</w>
war nings</w>
vi l</w>
d le
conne ction</w>
ap ers</w>
Ma ke</w>
oci de</w>
W he
lic king</w>
ir r
V al
R ac
promo te</w>
li ved</w>
K at</w>
thre ats</w>
sha red</w>
L L</w>
play ers</w>
marri age</w>
fac tual</w>
f ill</w>
ba stard</w>
00 00
w ow</w>
' S</w>
yel low</w>
de termin
chic ken</w>
EN T</w>
CK S</w>
7 0</w>
qu est</w>
pl enty</w>
att acked</w>
T AL
Na zis</w>
up date</w>
inser t</w>
id a</w>
hor ns</w>
b age</w>
a u</w>
S E</w>
pro jec
ish es</w>
hi de</w>
hand le</w>
bu ll</w>
# positive</w>
viol ent</w>
r ange</w>
per c
he a
Li fe</w>
wit ch</w>
vide os</w>
r an</w>
ed eral</w>
Prec eding</w>
B ALLS</w>
nomin ated</w>
sho p</w>
ro ll</w>
lo ves</w>
beg in</w>
S pan
P aul</w>
L MA
2 nd</w>
shit ty</w>
inst ream</w>
sa v
cr ying</w>
Y an
w ould
pl at
mar ks</w>
dick head</w>
ad ing</w>
D ick</w>
ra tive</w>
hel ps</w>
femin ism</w>
crimin al</w>
co ld</w>
a tion
si ster</w>
IT E</w>
Ch ic
sle ep
f antas
att acking</w>
They 're</w>
re ached</w>
ki d
j ur
ir t</w>
every where</w>
cont roll
AG E</w>
su per</w>
s -
la h</w>
f are</w>
TH ING</w>
J im
st a</w>
isla m</w>
S hi
st ories</w>
hom o</w>
e cu
ant i</w>
Youn g</w>
S al
l in</w>
z i
the orist</w>
pow er
hypo cr
guide line</w>
b alls</w>
a de
tr o</w>
th ir
play er</w>
ent ary</w>
encyclope dic</w>
B al
A ra
ki e</w>
in -
f a</w>
b ands</w>
W OR
J er
ar re
ni e</w>
fore ign</w>
B us
thin king_face</w>
plan et</w>
la zy</w>
l ady</w>
hor rible</w>
feel s</w>
disc ri
disc o
c atch</w>
R E</w>
Mac edon
K K
st on</w>
m ans</w>
ic es</w>
g an</w>
Accor ding</w>
t oler
stan tly</w>
st ation</w>
pers ons</w>
ref rain</w>
in _
en ge</w>
Un fortunately</w>
9 .1
re direc
per mission</w>
g as</w>
vand al</w>
stu dent</w>
publi can</w>
milli ons</w>
gir l
academ ic</w>
ST OP</w>
pu l
agre ement</w>
repor ts</w>
men tions</w>
m o</w>
di se
indus try</w>
gra m
en jo
as ing</w>
W ho
oc k
no ti
an o
review ed</w>
pri or</w>
pr ison</w>
lo ved</w>
deser ves</w>
ci l</w>
U p</w>
Pal est
who 's</w>
w ars</w>
sa ke</w>
p ure</w>
j a</w>
d ating</w>
West ern</w>
S S</w>
DON T</w>
B en
ty pical</w>
st age</w>
pl us</w>
li ar</w>
did n</w>
y all</w>
lo ca
ill ary</w>
benef it</w>
Austral ia</w>
d ying</w>
b on
as ian</w>
cra ft</w>
ti tion</w>
confir med</w>
atur day</w>
ari a</w>
Per son
st ati
no -
al th</w>
H am
C al
friend ly</w>
categ ories</w>
H or
4 8</w>
z ed</w>
te ab
speak ing_head</w>
cro s
web sites</w>
de gree</w>
ar ri
ma instream</w>
auth or
To o</w>
discri min
develop ment</w>
controver sy</w>
Tr ump
T ell</w>
pr on
num erous</w>
info box</w>
har d
ac tivi
T al
up set</w>
g es</w>
Vide o</w>
EL L</w>
ru g</w>
que er</w>
oc cup
dr unk</w>
Fa ir</w>
Democr ats</w>
An d
pla in</w>
i lies</w>
even tually</w>
WH Y</w>
Don ald</w>
speci es</w>
i ble</w>
b attle</w>
P en
it ation</w>
inter national</w>
go ld</w>
Pa ki
ho li
fav or</w>
alifor nia</w>
ali ve</w>
S our
AN D
# l
u g</w>
lo ser</w>
bab e</w>
OO BS</w>
J a
se emed</w>
de aling</w>
ak a</w>
agaz ine</w>
Un der</w>
A D</w>
wa ke</w>
thr ough
cri mes</w>
by e</w>
ad dy</w>
C hi
contribu tors</w>
ch r
RE T
F ace
v ility</w>
pas sed</w>
inno cent</w>
hes itate</w>
c ed
v an</w>
lead er</w>
j um
The ir</w>
Rev i
AN I</w>
bigg er</w>
Tw o</w>
per spec
enti t
d ress</w>
be ar</w>
mi xed</w>
ist er</w>
P ER
N N
sm h</w>
en viron
citiz ens</w>
bu t
associ ated</w>
Ar ch
y l
cli ck</w>
wor th
st uck</w>
rais ing_
li ck</w>
individu als</w>
elec tr
dr ink</w>
S ar
S and
O ther</w>
ys is</w>
uc ks</w>
requi res</w>
o _
i i
ab les</w>
tu be</w>
su n</w>
g in</w>
em bar
con stantly</w>
M ON
terror ism</w>
shrugg ing_
phys ical</w>
p ha
g a</w>
em i
_ suit</w>
Un it
refer red</w>
p m</w>
liber als</w>
le tter</w>
apologi ze</w>
O ld</w>
a g</w>
spor ts</w>
par ties</w>
immig ration</w>
gen u
consist ent</w>
bu s</w>
Ques tions</w>
Go vern
CO CK
C u
thumb s_
dis ambig
amer ica</w>
S he
some what</w>
regu lar</w>
mm ed</w>
gre en</w>
cul tural</w>
blu e_
ag er</w>
K ur
: "</w>
we ren't</w>
pre gn
m ig
TA B</w>
Be ing</w>
4 4</w>
bro wn</w>
L mao</w>
Catho lic</w>
wle d
whe re
upload ing</w>
op ening</w>
mer ge</w>
up load</w>
mo ther
loca ust</w>
exp lic
t ful</w>
f requ
D ep
we ap
ref ers</w>
Ste ve</w>
AT E</w>
AN S</w>
ter rible</w>
se curity</w>
neigh b
inte gr
gar bage</w>
er s
B EST</w>
requ ire</w>
in k
argu ing</w>
M ur
M P
LI VE</w>
re se
man_ facepalming_
else where</w>
de -
dang erous</w>
B ir
lear ned</w>
medic al</w>
id es</w>
strong ly</w>
op posed</w>
m ach
an -
teac her</w>
hum ans</w>
exper t</w>
H igh</w>
H A</w>
FA G</w>
3 5</w>
psy cho
her self</w>
cre dit</w>
Tex as</w>
# d
um s</w>
er -
effor ts</w>
Tim es</w>
P hi
we stern</w>
struc ture</w>
m on</w>
da ily</w>
cus tom
8 .1
it ors</w>
com for
alter native</w>
We 're</w>
S t</w>
Cana dian</w>
A p
laug h
langu ages</w>
co verage</w>
co ck
LO LO
F un
L A</w>
k et
ex pected</w>
Jap an</w>
F I
i ties</w>
b ad
S peci
# n
sho wed</w>
G AY</w>
S C
1 00
s or</w>
influ ence</w>
an cient</w>
N ice</w>
M edi
BL P</w>
4 .1
wal king</w>
belie f</w>
Im ag
COCK SUC
through out</w>
MO TH
L OO
H U
tain ed</w>
re placed</w>
mar ket</w>
la p
gr ade</w>
f ly</w>
a kes</w>
R S
I Q</w>
3 RR</w>
s ne
in ts</w>
extre me</w>
b ic</w>
U p
In de
# c
# W
re plac
gun s</w>
flex ed_
flexed_ bic
de sign</w>
ca ke</w>
or ing</w>
for um</w>
at tribu
m outh
en ever</w>
dam age</w>
com pared</w>
S ure</w>
EV ER
ol der</w>
treat ment</w>
sexu ality</w>
ple as
necess arily</w>
compla in</w>
af ter
J ones</w>
Inter net</w>
E mp
B ad</w>
underst ood</w>
el ly</w>
cre t</w>
ac hing</w>
Yan ke
St ar
t ool</w>
stu dies</w>
star ts</w>
lear ning</w>
la be
che ck
af fir
To day</w>
J UST</w>
pot ential</w>
im possible</w>
fam ilies</w>
equ i
dra w</w>
Re public</w>
s ligh
oc cas
movi es</w>
inci dent</w>
3 0
publi sh
al t</w>
# be
up dated</w>
har dly</w>
h il
did nt</w>
ar my</w>
Regar ding</w>
D AY</w>
public ans</w>
propos al</w>
cla pping_
SU P
lo ving</w>
justi fy</w>
help me</w>
pan ts</w>
gr atu
ess es</w>
ca p</w>
Bo th</w>
ga ys</w>
featu red</w>
F il
de st</w>
un sourced</w>
in spi
hat red</w>
fashi on</w>
ex tra</w>
com pre
benef its</w>
ach es</w>
W S</w>
s j
orig in</w>
oppos ite</w>
inter view</w>
Brit ain</w>
tit les</w>
ther more</w>
sy st
su e</w>
o il</w>
identi fy</w>
V ery</w>
7 .1
mo bi
for mat
blo cks</w>
You 've</w>
te en</w>
peop le's</w>
is ation</w>
care ful</w>
c is
W r
Vand alism</w>
N ex
bo xes</w>
V ER
Su pp
G ive</w>
suc cess</w>
so ld</w>
sc o
ol f</w>
charac ter
agg res
The refore</w>
Secon d</w>
G I
wat ched</w>
lo cation</w>
defin ed</w>
a tional</w>
ti mat
continu es</w>
ari ous</w>
S am
I ra
A tt
secon dary</w>
rever ts</w>
d res
ang ing</w>
regi on</w>
con sequ
H ind
4 0
res h</w>
cop s</w>
prote c
p ass
p a</w>
min im
Ser iously</w>
S how</w>
Ale x
am p</w>
tri p</w>
success ful</w>
smiling_face_with_ horns</w>
s ongs</w>
experi enced</w>
dec ent</w>
F am
sp ort</w>
ch e</w>
belie fs</w>
ari o</w>
ans w
D Y</w>
C lin
5 0
tu red</w>
re v
le cted</w>
je wish</w>
is ms</w>
P ho
pos es</w>
igno red</w>
bir ds</w>
anony mous</w>
wi kipedi
fun dam
f illed</w>
cra tic</w>
Face book</w>
B el
sus pic
suffic ient</w>
s outh</w>
mor al</w>
g in
Every one</w>
we red</w>
stand s</w>
h ating</w>
blue_ heart</w>
b by</w>
B ill</w>
writ er</w>
v ill
tr us
Tem plate</w>
Fin ally</w>
particip ate</w>
in si
coll abor
te l</w>
on a</w>
guil ty</w>
a h
T ry</w>
Fr ance</w>
ww w
the sis</w>
ra p</w>
philos oph
j un
fig ures</w>
tw o_
subjec ts</w>
non- free</w>
in struc
imp ly</w>
list ening</w>
h uh</w>
e x</w>
bi o</w>
be comes</w>
WH O</w>
sugges tions</w>
sca red</w>
ra ise</w>
min ute</w>
k ish</w>
an o</w>
agra m</w>
Ar ab
spo t</w>
addi tional</w>
ri de</w>
ref use</w>
fil es</w>
copy righ
Y Y
Wi th
Unit ed_
Sur render</w>
Span ish</w>
ti al</w>
puppe try</w>
organ iz
femin azi</w>
bre ak
U k
So vi
ti e</w>
sl ut</w>
sha pe
ser ved</w>
les bian</w>
Sta r</w>
im a</w>
illi on</w>
Y o</w>
3 2</w>
st ore</w>
p al
def ending</w>
c licking</w>
U N</w>
N ic
3 3</w>
si es</w>
ret ards</w>
ref lect</w>
qu it</w>
le -
intellig ence</w>
fe et</w>
fa il
con clusion</w>
bio graphy</w>
al ized</w>
Sa me</w>
sen ten
s .
Imag ine</w>
# A
reason ing</w>
pus h
7 7</w>
sm ells</w>
di sm
di g
ar ms</w>
amer ican</w>
Y S</w>
FRE E
swe et</w>
mid dle
graphi c</w>
bloo dy</w>
D en
t age</w>
sto red</w>
ignor ance</w>
ho p</w>
fuck er</w>
L ist
tw are</w>
stitu tion</w>
disa p
chan nel</w>
br inging</w>
ati ves</w>
achi ev
V ic
tr igg
t ree</w>
re stric
impro ving</w>
gan g</w>
feren ces</w>
eng lish</w>
mist akes</w>
loc ated</w>
k ly</w>
conv in
bit s</w>
D AM
st one</w>
in put</w>
assu ming</w>
Ni pple</w>
troll ing</w>
off ended</w>
oc cur
continu ed</w>
al o
_ and_
Christi anity</w>
C all</w>
s m</w>
perspec tive</w>
origin ally</w>
appe ared</w>
THE Y</w>
senten ces</w>
mo sle
it tee</w>
cro w
scre en</w>
regi stered</w>
educ ated</w>
beg an</w>
Re li
O ut</w>
Joh n
AS E</w>
w ont</w>
he aring</w>
bab ies</w>
W in
3 rd</w>
scen e</w>
mis leading</w>
ma ster</w>
bl an
ash ington</w>
K en
Char lie</w>
z en</w>
un iversity</w>
ra dio</w>
open _
equ ality</w>
all ery</w>
addi tions</w>
ab led</w>
L ast</w>
20 0</w>
# inst
su ic
k ick</w>
gen ocide</w>
belong s</w>
b i</w>
ag ement</w>
addres sed</w>
s and</w>
ob ject</w>
can cer</w>
b ought</w>
Ar men
or g</w>
na h</w>
conduc t</w>
chall eng
an ism</w>
C alifornia</w>
provi ding</w>
Per si
Fri day</w>
FF FA</w>
5 FFFA</w>
#F 5FFFA</w>
th or
tar get</w>
sit ting</w>
fin ished</w>
de fe
Th om
F oo
E m
res olution</w>
hus band</w>
commer cial</w>
I ran
Dele tion</w>
Comm un
suppor ters</w>
shape d_eyes</w>
par k</w>
i 've</w>
hund reds</w>
hol ding</w>
Y et</w>
t le</w>
sk ills</w>
op tion</w>
for ces</w>
US E</w>
war ned</w>
me at</w>
gr o</w>
G ar
tra iler</w>
si x</w>
k a
entit led</w>
S ou
w ild</w>
repe at</w>
z z</w>
interpre tation</w>
commun ist</w>
bur n</w>
OOOO OOOO
O x
the ories</w>
out ing_face</w>
log ged</w>
ir s</w>
M ag
t oo
stati s
et te</w>
car ry</w>
BLO CK</w>
tin y</w>
terr it
repres ent</w>
ic o</w>
attemp ts</w>
Nex t</w>
sof t</w>
lo ve
f lu
con tain</w>
ar m</w>
WA S</w>
Sco t
B UT
RE D</w>
Cour t</w>
two_ hearts</w>
stup idity</w>
requi re
me me</w>
h at</w>
di v
de ly</w>
K ingdom</w>
F ound</w>
vol un
re action</w>
ho pefully</w>
dist in
anal ysis</w>
L M
medium- light_skin_tone</w>
cre d
_ po
D ev
. ."</w>
the red</w>
t ren
ris k</w>
reque sted</w>
gg ing</w>
d are</w>
IN G
F O
Ang el
tain ing</w>
s ad
infor med</w>
disambig uation</w>
c ement</w>
appe ar
am i</w>
P ic
Ex c
tech no
je ction</w>
introduc tion</w>
eli min
de ep
cap able</w>
as ians</w>
anim al</w>
T om
RE AL</w>
P ow
N EVER</w>
19 5
vil le</w>
te ach</w>
se a</w>
ob ses
censor ship</w>
TAL K</w>
sk y</w>
s si
ou tta</w>
pec ts</w>
we 'll</w>
sp lit</w>
ra dic
ho t
e red</w>
de ter
2 1
ri c</w>
opport unity</w>
o k
copyrigh ted</w>
an ce
tra in</w>
or ida</w>
na il</w>
aw ard</w>
U se</w>
sol di
provi des</w>
gener ation</w>
f u</w>
Un less</w>
Rom an</w>
# al
pa y
di sh
cha se</w>
St re
BT W</w>
4 2</w>
wa ve</w>
respon si
repor ting</w>
pa in
p iss</w>
S in
Ara b</w>
An dre
h its</w>
Coun ty</w>
u red</w>
m el
fin an
bre aking</w>
L at
Be fore</w>
won der
investig ation</w>
ins ane</w>
cur ious</w>
br uh</w>
arch ive</w>
S la
S k
w ishes</w>
experim enting</w>
bro ad
anc ing</w>
B R
v ey</w>
fe ed
S ing
BU T</w>
u k</w>
boy friend</w>
3 9</w>
see k</w>
newsp aper</w>
ene my</w>
D C</w>
un g</w>
str ange</w>
ge o
dri ving</w>
de sign
aw ful</w>
W il
7 5</w>
resour ces</w>
peop les</w>
od d</w>
glo bal</w>
de liber
a st
D ra
Col lege</w>
to -
st af
mean ing
blin d</w>
SH O
I V</w>
I ST
C la
v e_
re jec
om g</w>
fri day</w>
con tra
ati n</w>
Rom an
recomm end</w>
real ized</w>
po ol</w>
li sting</w>
f es
does n</w>
F E
E r
AA AA
veri fied</w>
shor tly</w>
does nt</w>
dispu ted</w>
ST U
Cen tr
1 /
ste am
s lo
re vis
li cation</w>
h ic
fun c
fe males</w>
ap art</w>
Na tion
DI CK</w>
Bul l
rac es</w>
per man
or lan
err ors</w>
d d
blat ant</w>
Wikipedi ans</w>
DI D</w>
veri fy</w>
th a</w>
incre di
contain s</w>
ar tist</w>
S c
Cop y
B io
smiling_face_with_heart- shaped_eyes</w>
pret end</w>
ound ation</w>
na tions</w>
d b</w>
civi liz
bra in
B I</w>
pr o</w>
j ump</w>
e c
dif f</w>
da y's</w>
C AN
dre am</w>
con vic
H en
intellig ent</w>
br ary</w>
L ord</w>
# faggot</w>
ty _po
ty_po pper</w>
tra vel</w>
tra ining</w>
ste in</w>
pro file</w>
lat ter</w>
co st</w>
W ashington</w>
Inter national</w>
tt ers</w>
swe at</w>
J ef
tal ks</w>
pa ying</w>
hel ped</w>
c ous
DO M</w>
l and
is es</w>
lo ss</w>
ell ing</w>
Syri a</w>
" The</w>
point ing_
adv ant
M OR
your self
mp tion</w>
ke y
ex ecu
def ense</w>
d rug</w>
as ion</w>
Mar k</w>
D ar
x _
lo sing</w>
head ing</w>
dic t
ul ts</w>
m es
la bel</w>
con fi
L in
sugge sting</w>
r ying</w>
men tioning</w>
ke ting</w>
app lied</w>
L y
EE EE
200 3</w>
respon ding</w>
pl ying</w>
per ate</w>
li a</w>
l ucky</w>
fr ustr
al ed</w>
Fur thermore</w>
tempor ary</w>
objec tive</w>
J ack
sm all
encour age</w>
chall enge</w>
bal ance</w>
Su b
O K
H y
wan ting</w>
vi ously</w>
val u
sel ling</w>
quo ted</w>
p adding</w>
lead ers</w>
Pu bli
L G
C ra
la me</w>
destro yed</w>
cam era</w>
P M</w>
Ear th</w>
EL F</w>
den y</w>
bi e</w>
arro g
Ha ving</w>
re views</w>
posi tions</w>
loc ks</w>
ide ology</w>
concer ning</w>
RO M</w>
H E
DAM N</w>
A maz
A h</w>
s in
s ight</w>
ra tional</w>
r is</w>
free zer</w>
en ta
dro pped</w>
Q U
Or ig
su rely</w>
sa fe
cro ss</w>
S D</w>
Mus ic</w>
AG A
t i</w>
me tal</w>
k o</w>
form ed</w>
eng age</w>
bl on
S uch</w>
AT ION</w>
val ues</w>
rema ins</w>
pe t</w>
ess or</w>
R T
C N
A m</w>
us ed_face</w>
on a
gr an
end or
ck er</w>
asser t</w>
D oc
Ar my</w>
te en
s am
rom _
gre ater</w>
art ment</w>
NO ES</w>
J ason</w>
G l
AN Y</w>
t v</w>
ma tive</w>
bl ing</w>
aaaaaaaa aaaaaaaa
M el
E U</w>
ch em
Sovi et</w>
P A
te ch</w>
smo ke</w>
se lec
proper ty</w>
wat ch
v ac
teab ag</w>
speci fied</w>
oper ation</w>
coun ter</w>
c el
1 px</w>
subjec t's</w>
on ed</w>
l ab
er ship</w>
econom ic</w>
Rob ert</w>
IN K</w>
H ell</w>
tagg ing</w>
offic er</w>
fuck sex</w>
comple x</w>
Re que
Loo ks</w>
FUCK ER</w>
F u
E ither</w>
s ki
s ar
ren g
ill ustr
wi dely</w>
un able</w>
r ab
g ate</w>
b at
T E
4 6</w>
yourself go</w>
sof tware</w>
conf using</w>
as ide</w>
Par k</w>
wa y
val ent</w>
ti ts</w>
de struc
bio graphies</w>
av ana
ac tivity</w>
Re quest</w>
4 7</w>
v ag
trans lation</w>
re stored</w>
en ter</w>
e ast</w>
bo tt
bo ld</w>
Wh at
Con f
stu b</w>
le ague</w>
criter ion</w>
al ty</w>
RI GHT</w>
H om
FUCKFUCK FUCKFUCK
wh enever</w>
they 've</w>
sen si
nnnnnnnn nnnnnnnn
intel lec
g ers</w>
exc ited</w>
develo p</w>
co p</w>
B BC</w>
4 1</w>
yyyyyyyy yyyyyyyy
tur ns</w>
or 's</w>
offici ally</w>
intere sts</w>
int ention</w>
de signed</w>
La w</w>
Bar nstar</w>
3 4</w>
x y</w>
s low</w>
s in</w>
justi fied</w>
gu ar
e board</w>
Se x</w>
yuyuyuyu yuyuyuyu
si r</w>
pre fer
p lot</w>
f ing
ch ill</w>
b in
pu ts</w>
projec ts</w>
prac tic
offe e</w>
mat ure</w>
k ar
am e
Chr ist</w>
v es
refuge e</w>
r ise</w>
m ad
f ounded</w>
col lec
cho se</w>
V ER</w>
Bro wn</w>
200 0</w>
sc ale</w>
mee ting</w>
hop ing</w>
assa ult</w>
_f rom_
O O</w>
w ns</w>
w et</w>
politic ians</w>
o logical</w>
comm itted</w>
an 's</w>
I F
F D
Chr is</w>
sock puppet</w>
pro gress</w>
dom ain</w>
LM FA
Gen eral</w>
tytytyty tytytyty
sla ve</w>
ly wood</w>
cont ents</w>
bo w</w>
S A</w>
Po lish</w>
J ack</w>
sp ac
j ack
her o</w>
fil ms</w>
exc ell
civi li
K a
App arently</w>
AR T
3 6</w>
te ach
surpr ise</w>
stric t</w>
m agazine</w>
lou d</w>
i als</w>
dum b
credi ble</w>
ci ous</w>
ac ity</w>
Su per
FREE DOM</w>
3 7</w>
# p
steam _from_
steam_from_ nose</w>
mm ing</w>
ig s</w>
face_with_ steam_from_nose</w>
co -
3 8</w>
win ning</w>
i ded</w>
e ye
docum ented</w>
di date</w>
bor ing</w>
believ es</w>
ar m
Al ban
worth less</w>
un fortunately</w>
suppor ts</w>
sh irt</w>
pro gres
ow ner</w>
ignor ing</w>
har m</w>
Ir an</w>
C R
so ever</w>
per m
larg est</w>
ke ys</w>
it ly</w>
diver sity</w>
differen ces</w>
Te ch
Fol low</w>
z any
zany _face</w>
www .
ver sions</w>
ow n
middle _f
happ iness</w>
f -
cul t</w>
x x</w>
te d
se cret</w>
ow ned</w>
l ars</w>
invol vement</w>
homo sexual</w>
cr ack
ac tor</w>
T om</w>
P LE
we 've</w>
stitu te</w>
power ful</w>
ol es</w>
la g</w>
ele cted</w>
de ar</w>
contr ary</w>
clo se
arre sted</w>
P A</w>
L an
H illary</w>
p ter</w>
p he
oo oo</w>
m ass
l ated</w>
ex pen
bom b</w>
R ace</w>
Ob viously</w>
tr ade</w>
t ools</w>
po op</w>
alle gations</w>
recogn ize</w>
ques tion
pro min
leg ally</w>
l mfa
ex clus
clari fy</w>
Re publican</w>
N ah</w>
N Y
MIL F</w>
GO D</w>
Ad di
r at</w>
main ly</w>
m p</w>
int ent</w>
docum ent</w>
ag on</w>
E gy
you n
puppe ts</w>
pro ced
net work</w>
lev ision</w>
expres s</w>
en tries</w>
conf usion</w>
W ales</w>
B ud
# R
sp am
s ni
metho d</w>
5 00</w>
0 .1
ther ap
plan e</w>
gratu lations</w>
ac tiv
Israel i</w>
Chic ago</w>
A ri
th es</w>
ree ts</w>
pic s</w>
haha ha</w>
feed back</w>
dr ugs</w>
app lies</w>
acc use</w>
0 8
v ast</w>
te ams</w>
signific ance</w>
lo y
embar ras
do ws</w>
d ance</w>
attemp ting</w>
United_ States</w>
0 4
speci ally</w>
nam ing</w>
li f
i p</w>
gram mar</w>
gr ateful</w>
P op
K NOW</w>
# smile</w>
x im
ta ught</w>
produc tion</w>
pis sed</w>
Un ion</w>
Th ink</w>
# g
what soever</w>
v ements</w>
uc e</w>
sh op
pen ding</w>
om s</w>
is pan
fun ction</w>
for mation</w>
O FF</w>
Li ve</w>
In te
CRAPCRAP CRAPCRAP
recei ve</w>
jo kes</w>
h ou
h itler</w>
ex pec
ev olution</w>
cop ied</w>
_s ign</w>
Ret ard</w>
P U
CUN T
# healthy</w>
x_ pointing_
is nt</w>
inde x_pointing_
go als</w>
develo ped</w>
Yanke es</w>
Ret arded</w>
Austral ian</w>
wonder ful</w>
to x
se ts</w>
po se
pie ces</w>
leng th</w>
larg er</w>
they 'll</w>
mer ged</w>
h ates</w>
di vi
col on
b is
Willi am</w>
Th us</w>
Pl us</w>
H igh
H S</w>
emplo ye
e less</w>
Pro te
Pe ter</w>
H ERE</w>
G lo
- up</w>
t ough</w>
smil ing_face</w>
mar k
hol der</w>
great est</w>
deta iled</w>
compla int</w>
bri dge</w>
tradi tional</w>
gro wing</w>
deter mine</w>
dem and</w>
ch il
S an</w>
N et
pro pose</w>
pla ys</w>
WT F</w>
Stu p
Spe edy</w>
Jo e</w>
. .."</w>
th in</w>
sla very</w>
respon ded</w>
per si
pat ri
fic ations</w>
O therwise</w>
J E
D R
un necessary</w>
st reng
organiz ations</w>
l ma
im pression</w>
fol lows</w>
direc tion</w>
um b</w>
e th</w>
a c</w>
U E</w>
S um
viol ate</w>
syst ems</w>
s wi
lead s</w>
cha mp
ca ref
c iting</w>
auth ors</w>
ani me</w>
M et
L ittle</w>
Admin istr
zzzzzzzz zzzzzzzz
tur ning</w>
so red</w>
hom opho
hel lo</w>
every day</w>
Some times</w>
J ay
G E
B ook</w>
# No
un like</w>
pro ves</w>
cu r</w>
com promise</w>
allow ing</w>
Christ mas</w>
w ashed</w>
su m</w>
coun ter
b un
am ed</w>
F L</w>
C E
supre mac
su me</w>
spe ed</w>
sligh tly</w>
r at
produc tive</w>
fail ure</w>
activi ties</w>
ab us
re f</w>
pro ce
n ut</w>
mosle m</w>
fr on
fi e</w>
corrup t</w>
al lows</w>
I d
HAHAHAHA HAHAHAHA
Fo x</w>
Con tribu
Bi ble</w>
B es
6 9</w>
uni que</w>
the re
sou l</w>
pow ers</w>
mon y</w>
ma mas</w>
dec is
Cro ati
mur dered</w>
dise ase</w>
cap it
appe al</w>
M ad
D E</w>
wi k
super ior</w>
su itable</w>
spe cu
af r
thro wing</w>
ter n</w>
ta x
sla p</w>
orlan do</w>
nigg ah</w>
is is</w>
hor se</w>
exist ed</w>
ee ee
c es
a x</w>
K ILL</w>
Clin ton</w>
5 .1
can didate</w>
we ather</w>
repe ated</w>
han g</w>
en for
emp ha
adv ance</w>
Sh it</w>
L ou
B or
sm ell</w>
do g
an cy</w>
RAP E</w>
LMA O</w>
0 1
pregn ant</w>
kis s
fe ed</w>
fa thers</w>
f ell</w>
Sup re
OU LD</w>
6 4</w>
who ever</w>
un blocked</w>
to ward</w>
il _
expla ins</w>
caref ully</w>
ab o
P R
Com p
6 6</w>
vandal izing</w>
sta ur
sp reading</w>
pe t
lar ge
believ ed</w>
Du de</w>
B ack</w>
8 5</w>
vic tor
ut ter</w>
smiling_face_with_ open_
pl ed</w>
ion al</w>
Mo vi
20 20</w>
v o</w>
v in</w>
the ma
st reets</w>
grad u
fi red</w>
back hand_
as ses
ar ity</w>
I DI
Bull shit</w>
user page</w>
suic ide</w>
p se
el ine</w>
co lo
can did
bl ank</w>
SH UT</w>
Gol d
ta ste</w>
sla ves</w>
h ence</w>
fuc ks</w>
fil thy</w>
en sure</w>
avana ugh</w>
Wa it</w>
Se ems</w>
G OT</w>
ye ar
im ple
cu m</w>
Palest in
tal ked</w>
secon ds</w>
in al</w>
den tally</w>
clo ser</w>
O FF
Nigg as</w>
N Y</w>
# w
sugge sts</w>
les sed</w>
foo t</w>
exp and</w>
e ing</w>
ch er</w>
bt w</w>
bro w
PLE ASE</w>
M S
# 8
z ar
we ak
insul ting</w>
be at
au di
as tic</w>
T er
Nor thern</w>
th i
ser vices</w>
sen ding</w>
rese arch
mi x</w>
h es</w>
a tic</w>
0 2
spark les</w>
imp act</w>
finan cial</w>
environ ment</w>
e ma
Tur kish</w>
L ar
Arch ive</w>
suc king</w>
so le</w>
ly -
girl friend</w>
ance str
agre es</w>
F Y
B T</w>
summ aries</w>
high est</w>
for th</w>
econom y</w>
SUP ER</w>
H ad</w>
ri bu
lef tist</w>
f o</w>
bo ss</w>
big o
acc ord
S ign
j i</w>
equ ally</w>
ab sur
Sm ith</w>
Na me</w>
GO P</w>
D ED</w>
- ></w>
on 's</w>
na zis</w>
ed er
cen ter</w>
ar ching</w>
O f
0 6
u k
s ons</w>
r ice</w>
produc ts</w>
op position</w>
main tain</w>
free ly</w>
del ay</w>
br and</w>
ap e</w>
T ER</w>
Pla ying</w>
P G</w>
K i
Emp ire</w>
d up
cir cle</w>
as sh
ad ed</w>
T re
T ED</w>
Revi ew</w>
J i
y o
lo go</w>
ar se</w>
Mid dle</w>
4 9</w>
v y</w>
t s
H as</w>
As sad</w>
5 4</w>
st ur
f ed</w>
ex posed</w>
cl ass
bri ef</w>
an i</w>
accus ation</w>
# The
worl d
u ous</w>
so -
scri pt</w>
pl ans</w>
fe ature</w>
essenti ally</w>
desi re</w>
charg es</w>
ad a
H u
F uck
B it
ut ter
go d
fi li
episo des</w>
bu tt</w>
ber t</w>
attr active</w>
WWWWWWWW WWWWWWWW
S il
S ho
D ri
uc le
is land</w>
fin ish</w>
comfor table</w>
al tered</w>
Stre et</w>
Pro b
Govern ment</w>
tig ht</w>
pre -
me chan
lo vely</w>
g ang
eng ine
t b
pres sure</w>
pr int</w>
li sh
kic ked</w>
fra ud</w>
ex clu
dec ades</w>
E v
D A
produc ed</w>
op ened</w>
h ous
ch ick</w>
am ent</w>
acc using</w>
a the
P AGE</w>
Mi ke</w>
L ONG</w>
wor kers</w>
vi le</w>
su d
stan ces</w>
r i</w>
Ric hard</w>
M s</w>
Fl orida</w>
De mo
C au
1 -
stal king</w>
gra ph</w>
excell ent</w>
co ver
L il</w>
mar ry</w>
gr y</w>
f am</w>
c al</w>
blo w</w>
Ira q</w>
HU GE</w>
Ar b
s al</w>
s ac
pa ste</w>
clo thes</w>
be sides</w>
ar row</w>
and y</w>
S an
D ani
ste al</w>
ph en
ob serv
ll s</w>
f oun
dra ft</w>
compar ison</w>
Stup id</w>
J ud
F U
w a</w>
si ve_
sc ore</w>
s at
s anc
lo ver</w>
ligh ts</w>
es .
Ho pefully</w>
BUT T
Anti -
A ir
0 3
schol ars</w>
disc our
br a</w>
TH ER</w>
STU PI
N EW</w>
I l
staf f</w>
pr ice</w>
lev els</w>
k n
ju di
hh h</w>
dis abled</w>
R am
G U
sive_ face</w>
r y
hil arious</w>
de gener
d addy</w>
cho sen</w>
I L</w>
F ore
AB OUT</w>
- )</w>
threat ening</w>
sho ts</w>
rest ore</w>
real ise</w>
privi lege</w>
pl ant</w>
cap ital</w>
Re publicans</w>
Ital ian</w>
Fur ther</w>
Con si
Comm ons</w>
tu s</w>
recogn ized</w>
over all</w>
comp are</w>
bur y</w>
_ of_
WA R</w>
G allery</w>
wor ried</w>
sk i</w>
man 's</w>
licen sed</w>
i k
e gg
compla ining</w>
backhand_ index_pointing_
arbit ration</w>
Tr ash</w>
TI ME</w>
J en
: (</w>
repres ented</w>
re lation</w>
he re's</w>
correc ted</w>
S aturday</w>
9 5</w>
responsi bility</w>
res er
promo ting</w>
op pose</w>
controll ed</w>
contribu ted</w>
ch o</w>
Y ING</w>
8 8</w>
z ing</w>
x i
semi -
po t</w>
liter ature</w>
heart _suit</w>
grinn ing_face_with_
bu ild
appear ance</w>
ackno wled
Z e
M ary</w>
I mm
ter y</w>
pron oun
neutr ality</w>
n i</w>
c us</w>
arch y</w>
ar abs</w>
C lu
n n</w>
mist ak
large ly</w>
jer k</w>
immig rant</w>
den ly</w>
ap p</w>
an on</w>
T ac
Ro ck</w>
P ret
ON LY</w>
Le ague</w>
sh ould
is n</w>
inf er
fol k</w>
compre hen
W E
EL E
B ush</w>
spir it</w>
Speci al</w>
Loo king</w>
LO S
IP P
6 5</w>
# k
sign ature</w>
s i</w>
pri de</w>
pe dia</w>
mat h</w>
ma ke
in y</w>
father 's</w>
explic itly</w>
disp la
dis gr
Y 'all</w>
S e</w>
Que en</w>
un do</w>
ser ving</w>
pro ved</w>
impro ved</w>
eng aged</w>
b ill</w>
M S</w>
D el
5 6</w>
ru in</w>
rac ists</w>
on er</w>
g arian</w>
fa ils</w>
f ought</w>
ali ties</w>
W o
Thom as</w>
Not ability</w>
7 6</w>
ve hic
resol ved</w>
ren tly</w>
re o
heav y</w>
ad o</w>
Every thing</w>
CN N</w>
As soci
A us
vio lations</w>
muzz ie</w>
ki es</w>
eth nic
contra dic
cl ue</w>
ar ti
U l
L uc
Ju n</w>
F BI</w>
9 /
talk page</w>
st able</w>
ord ers</w>
defin e</w>
au to
abus ive</w>
Prob ably</w>
O ne
I R</w>
B ol
techno logy</w>
re marks</w>
plann ing</w>
ou ble
mic ro
il st</w>
es h</w>
bi ans</w>
T err
STUPI D</w>
Rf C</w>
Pro -
B at
A li
squ int
less ly</w>
insul ts</w>
emo tional</w>
al a</w>
Th ats</w>
T ING</w>
Da ily</w>
Af g
sj w</w>
pu lled</w>
mo di
in ely</w>
g as
featu res</w>
contribu tor</w>
b t</w>
ad vis
To p</w>
ES E</w>
And re</w>
troll s</w>
per pe
er o
e go</w>
dra ma</w>
dist ribu
disco vered</w>
al ous</w>
Tur key</w>
T M
Ne utr
IT S</w>
Ho ly</w>
9 9
win dow</w>
run s</w>
ped ophi
m oun
har der</w>
flexed_bic ep
flexed_bicep s_
col lection</w>
Un til</w>
S tra
Ne ed</w>
x it</w>
timat ely</w>
st eps</w>
philosoph y</w>
min ded</w>
l ay</w>
g h</w>
et ings</w>
Ret weet</w>
Mex ico</w>
List en</w>
H IS</w>
COCKSUC KER</w>
pi g</w>
off -
l un
holi day</w>
fe cted</w>
dispu tes</w>
der i
bud dy</w>
S or
Le g
LO VE</w>
J im</w>
wel fare</w>
techn ical</w>
ta xes</w>
st -
se es</w>
recor ds</w>
offe red</w>
hum anity</w>
ers on_
ca uses</w>
Sh ut</w>
Poli ce</w>
Is n't</w>
6 8</w>
3 00</w>
lin king</w>
in accurate</w>
grinn ing_face_with_smiling_eyes</w>
f r</w>
disc re
dic ated</w>
bro thers</w>
alleg ed</w>
a ths</w>
V e
S at
NA ME</w>
BUTT SE
BU LL
# thankful</w>
# a
reque sts</w>
plat form</w>
gr ounds</w>
fac e
f ederal</w>
democr acy</w>
IS M</w>
BUTTSE CKS</w>
B un
5 1</w>
we ed</w>
te le
g en</w>
en em
clapping_ hands_
centr al</w>
W AY</w>
L atin</w>
J ER</w>
Gi ven</w>
F ROM</w>
C ul
wed ding</w>
min ds</w>
incre ase</w>
i us</w>
er c
e h</w>
con stant</w>
attemp ted</w>
T ro
S us
M en
se ven</w>
pro hi
notic eboard</w>
mach ine</w>
it a</w>
impro vement</w>
N one</w>
En c
CO CK</w>
vir us</w>
thr u</w>
s_ mark</w>
rec all</w>
folded_ hands_
crimin als</w>
charg ed</w>
bal anced</w>
Re gi
we alth</w>
viol ating</w>
ti me
edi tion</w>
che e
candid ates</w>
ang ed</w>
De f
the less</w>
speci fy</w>
re mind</w>
pur poses</w>
promo tion</w>
motiv ation</w>
man aged</w>
lo yal</w>
jo ined</w>
direc ted</w>
S we
S emi
K no
F ind</w>
ti a</w>
re staur
pp in</w>
nar rative</w>
m ed
it age</w>
inv ented</w>
g ni
YOU RS
Centr al</w>
soci alist</w>
ho sp
head ed</w>
do -
a di
M U
Le ar
K avanaugh</w>
Indi ans</w>
G or
Cha mp
" ></w>
wa sting</w>
r are</w>
po or
po ll</w>
p al</w>
norm ally</w>
mm m</w>
dol lars</w>
determin ed</w>
convin ced</w>
comm it</w>
ba rely</w>
Supp ort</w>
MOTH JER</w>
spo ken</w>
scri p
effec tive</w>
as pects</w>
S ay</w>
Hist or
Con tri
= )</w>
4 3</w>
st ars</w>
sel fie</w>
ph s</w>
in tro</w>
de cla
d h
U ser
Q ur
you tube</w>
te dly</w>
soldi ers</w>
so le
on e-
music al_
f resh</w>
advant age</w>
ad ult</w>
TW AT
M ul
200 1</w>
ucle ar</w>
ti ps</w>
sa ved</w>
r um
per cen
gen re</w>
extre m
M A</w>
C C</w>
Ale x</w>
11 1</w>
te sted</w>
statis tics</w>
sm ir
ple ts</w>
ion ist</w>
c ould
ban k</w>
as ks</w>
a Re</w>
P ress</w>
OO D</w>
M ar</w>
Fam ily</w>
DY K</w>
Con tro
8 .2
ur sday</w>
sho es</w>
repres entation</w>
om in
min d
li p</w>
it em</w>
graph ical</w>
categ or
0 1</w>
ye a</w>
volun te
un fair</w>
t ary</w>
sur r
r o</w>
possi bility</w>
mani pu
idio tic</w>
i red</w>
bo thered</w>
PH IL
Hon estly</w>
Bl ack
BULL SHIT</w>
A po
was n</w>
v ig
tr af
sud denly</w>
por tion</w>
equi valent</w>
col um
co ho
c ats</w>
Some thing</w>
S el
O ver
F GG
C er
un am
te levision</w>
re write</w>
pret ending</w>
o es</w>
logi es</w>
lim it</w>
identi fied</w>
ho ly</w>
exp anded</w>
ace ful</w>
C lick</w>
B B
war ri
spe ll</w>
no where</w>
le t
k ings</w>
ish ment</w>
h ated</w>
Geor gi
EE N</w>
Cau Se</w>
C ard</w>
Be CauSe</w>
v om
unam used_face</w>
s low
r ussi
r ated</w>
is sy</w>
e able</w>
colo red</w>
classi c</w>
T A</w>
RE N
Po st</w>
I C</w>
tain s</w>
le tters</w>
decis ions</w>
clim ate</w>
c ars</w>
bo dies</w>
apo logy</w>
FGG T</w>
Con gress</w>
B ru
phys ics</w>
la dies</w>
il es</w>
el ds</w>
effec ts</w>
duc tion</w>
ar med</w>
O ver</w>
Ho t</w>
Gre en</w>
A ct</w>
# de
z ard</w>
om en
lo ween</w>
infor m</w>
emp ty</w>
assi stance</w>
asser tion</w>
accur acy</w>
YOURS ELF</w>
E duc
A sh
0 5
ref used</w>
e e</w>
dis play</w>
any ways</w>
ag on
Gu y</w>
2 8
ut ch</w>
gro ss</w>
fac es</w>
T it
ON S</w>
Mar x
M G
A ir</w>
< 3</w>
wo ke</w>
sol ve</w>
m al</w>
fl ying</w>
dro plets</w>
docum ents</w>
ce rely</w>
7 2</w>
. org</w>
rep lied</w>
i j
f loo
e ball</w>
des k</w>
condi tions</w>
ackno wledge</w>
S pr
OK _
3 .1
sym pa
it ar</w>
inv ited</w>
er able</w>
bro ken
anc est
agg ing</w>
TWAT '
Sour ce</w>
Ea stern</w>
Char les</w>
Bes ides</w>
#P S
ven ue</w>
sub -
r he
p o</w>
oo l
man_ shrugging_
m irr
bl ed</w>
TWAT' TWAT'
R ol
Le ave</w>
Gir l</w>
A ll
@user "</w>
v in
sweat_ droplets</w>
repu tation</w>
recor ded</w>
m ud
lic ated</w>
form al</w>
f our
e z
den ied</w>
con clus
c on</w>
Movi e</w>
view ed</w>
univer se</w>
radic al</w>
initi al</w>
he al</w>
fasc ist</w>
clo sely</w>
cam p</w>
ans wered</w>
Paki stan</w>
M em
G ate</w>
G RE
Fe atu
FRE E</w>
vill age</w>
re vol
pic ked</w>
ough ly</w>
open ly</w>
m ood</w>
k ne
S ir</w>
Kore an</w>
IDI OT</w>
0 8</w>
wr ong
ste reo
it arian</w>
ing_ heart</w>
histor ians</w>
go at</w>
f ru
be er</w>
Isla m
D NA</w>
# fun</w>
sour cing</w>
sh u
publi cation</w>
perc ei
nation alist</w>
n is</w>
inter ven
ho sti
christi an</w>
bo red</w>
al ot</w>
Y u
Ru be</w>
IC E</w>
HA R
w an</w>
thous and</w>
ing_face_with_ tongue</w>
ing er
div or
assh oles</w>
# sun
tar ge
s ales</w>
ol a</w>
nor th</w>
fl at</w>
conv ince</w>
bre ed</w>
Tr ue</w>
Sco tt</w>
P res
F IR
Con serv
5 3</w>
# H
w rest
spe aks</w>
safe ty</w>
in stitu
conc ep
b att
S har
CH E
str ateg
reli ev
r ou
ma thema
hair y</w>
folded_ hands</w>
clo wn</w>
beau ty</w>
Y a</w>
V AND
G ro
C EN
w l</w>
ur s</w>
p apers</w>
ouble _
medi ation</w>
la id</w>
fac ed</w>
exc eption</w>
consequ ences</w>
be ating</w>
a i</w>
W el
0 7
un clear</w>
sp ic</w>
on al</w>
he ar
che ap</w>
c offee</w>
answ ers</w>
Wh ites</w>
SJ W
Rf A</w>
Kore a</w>
E specially</w>
Bo y</w>
valu able</w>
scienti sts</w>
s ale</w>
resol ve</w>
pa ir</w>
ouble_ exclamation_mark</w>
ins ist</w>
aggres sive</w>
a wa
N OOBS</w>
G ay</w>
Bo b</w>
ro b
privi leg
m ere</w>
ac tors</w>
_ bag</w>
Wiki media</w>
What ever</w>
4 .2
relation ships</w>
red dit</w>
ph ras
mo ves</w>
iz za</w>
i i</w>
hi ding</w>
establi sh
do x</w>
col our</w>
T ony</w>
wed en</w>
money _bag</w>
log ist</w>
ket ball</w>
gro wn</w>
ex tent</w>
enti ous</w>
enem ies</w>
comm entary</w>
app arent</w>
J ac
y a
un civil</w>
quali fy</w>
p ack</w>
mor ons</w>
m um</w>
b adly</w>
V O
P an
Mo re
Contri bs</w>
C ARE</w>
te sting</w>
some one's</w>
ist an</w>
hon or</w>
es ca
WAN T</w>
Sun day</w>
Sci ence</w>
IN T</w>
I O
HO W</w>
t our
por tra
pas sing</w>
i ding</w>
frequ ently</w>
fr inge</w>
fic tion</w>
f inger</w>
corpor ate</w>
bre a
R an
B an
#PS 4
# no
sex y</w>
pres ence</w>
poli tically</w>
man u
gen t
e- mail</w>
Jo se
DY KE</w>
DO G</w>
6 2</w>
tit led</w>
st om
ser ver</w>
mar ked</w>
is ra
imp lies</w>
disa ppe
conne cted</w>
as pect</w>
al y</w>
adm itted</w>
absur d</w>
With out</w>
I G
Bet ter</w>
Ba stered</w>
win king_face</w>
wh el
sym bol
ff s</w>
fag s</w>
arrog ant</w>
agg ed</w>
Ga me</w>
Coun cil</w>
win d</w>
t ask</w>
survi ve</w>
sum mar
st ab
pro vo
on going</w>
l ord</w>
is ely</w>
ir ing</w>
f ab
administ ration</w>
Un iver
N av
J A
Gr ou
ur al</w>
kin ds</w>
i 'll</w>
g ar</w>
comm only</w>
cele bra
c ash</w>
broken _heart</w>
ST ILL</w>
O ut
B A</w>
200 2</w>
teac hing</w>
t el
substanti al</w>
k h
it ems</w>
fav our
ev ol
ed ed</w>
cal m</w>
bor ders</w>
ar tists</w>
T H</w>
P R</w>
MO US</w>
IL L
Bl acks</w>
wr ites</w>
tran sp
si vely</w>
point less</w>
pe er</w>
pag e
p unch</w>
kin s</w>
ex pan
dish on
cro ss
conf lic
commun ities</w>
bla h</w>
Po int</w>
@user ‍</w>
0 9
sensi tive</w>
r on</w>
pro test</w>
pre dic
lo l
instruc tions</w>
guar an
cous in</w>
cl es</w>
V is
PE OP
O s
Mo ha
K now</w>
K in
Is land</w>
F an</w>
8 6</w>
0 6</w>
vo ters</w>
un acceptable</w>
tes ti
tac os</w>
p ink</w>
mem ory</w>
it t</w>
dumb ass</w>
dr inking</w>
col lap
ck et</w>
ade qu
addres ses</w>
S nail</w>
ON Y
M AN
7 8</w>
# E
pu s</w>
mo de</w>
l acking</w>
is y</w>
gene tic</w>
fin na</w>
P ur
M as
J ord
Goo d
# life</w>
tex ts</w>
s now
r ay</w>
or able</w>
in ve
compe tition</w>
assu med</w>
achi eve</w>
Th ough</w>
OM G</w>
G FD
DON 'T</w>
Bra z
# the
ree -
pres er
in 's</w>
ic ks</w>
eg g</w>
ca st
bo ts</w>
TW AT</w>
So cial</w>
M AN</w>
Inde ed</w>
roll ing</w>
rejec ted</w>
re vision</w>
pet ty</w>
gre en
gl ass</w>
g ol
do s</w>
cre ator</w>
br an
bb ish</w>
US S
RA C
D un
D id
to s</w>
therap y</w>
scre aming</w>
respec tful</w>
perform ance</w>
m id</w>
loo kin</w>
gen ous</w>
con sci
chil dish</w>
bu ying</w>
blon de</w>
al istic</w>
al e
D ER</w>
Comm ittee</w>
ta il</w>
scre en
res pected</w>
r n</w>
r ats</w>
pun k</w>
doc tr
P L
J our
Bl ue</w>
yclope dia</w>
th ick</w>
sub mission</w>
stre am</w>
sp ending</w>
sle tter</w>
paragra phs</w>
mis o
en cies</w>
crow d</w>
br ings</w>
Ha ha</w>
5 -
v ity</w>
u x</w>
nu ts</w>
law yer</w>
j us</w>
format ting</w>
f fe
estab lish</w>
ca using</w>
c ook</w>
Un der
Al ways</w>
AGA IN</w>
territ ory</w>
te eth</w>
spon der</w>
pr is
pr ay</w>
foc used</w>
enti ally</w>
cou pled</w>
compe tent</w>
as ha
ar rest</w>
am p
WH ITE</w>
Tran sponder</w>
Fe b</w>
F IN
Comm unity</w>
w ill
t wi
so- called</w>
see king</w>
ph an
of -
li bt
exper ts</w>
dis like</w>
arbit r
Pol and</w>
Ju da
Har ry</w>
H im</w>
win k
se tting</w>
redirec ts</w>
quali fied</w>
protec ting</w>
ili ties</w>
apologi es</w>
W ant</w>
Pow er</w>
Dis cus
AN ONY
6 1</w>
writ ers</w>
ham mad</w>
h t
descri bing</w>
credi bility</w>
circum stances</w>
ar d
anal y
PHIL IPP
Ma in
L ink</w>
GFD L</w>
D N
Ap r</w>
2 7
subm it</w>
sp ring</w>
small er</w>
s ary</w>
person ality</w>
offen se</w>
mater ials</w>
man_facepalming_ medium-dark_skin_tone</w>
lin e
f light</w>
conserv atives</w>
cen sus</w>
af fili
PEOP LE</w>
IN ES
D ou
CO MM
ANONY MOUS</w>
threat ened</w>
miso gy
f low</w>
ev ening</w>
co vers</w>
c at_
ang ers</w>
al ize</w>
St or
S ON</w>
J am
Ex ternal</w>
Asi a</w>
5 2</w>
0 7</w>
y n</w>
un known</w>
ther ing</w>
techn ically</w>
tal ity</w>
repres enta
mar keting</w>
introduc ed</w>
gr ats</w>
_ medium-dark_skin_tone</w>
U sing</w>
Th r
Supre me</w>
Ro yal</w>
B loo
2 9
sc ope</w>
princi ple</w>
po ster</w>
bul ly</w>
b and
adv ise</w>
S w
Pret ty</w>
# affir
w th</w>
ti an</w>
sch ed
m un
haras sing</w>
foo ls</w>
f alls</w>
b all
ag i
abor tion</w>
Mar tin</w>
LE A
AF D</w>
tiv al</w>
stri ke</w>
op pon
neigh bor
hea vi
es day</w>
S au
O VER</w>
Le e</w>
J O
Dep artment</w>
De c</w>
2 .2
suff er</w>
ren ce</w>
poor ly</w>
objec tions</w>
o x
new com
minim um</w>
mil es</w>
ma y
la un
be am
S qu
S M
O l
IS H</w>
sit u
promo tional</w>
pol ite</w>
it u
ill er</w>
dist ur
dic ks</w>
decla red</w>
co cks</w>
Iran ian</w>
Gree ce</w>
Dis ney</w>
AC C
: 00</w>
ug gle</w>
sy ri
ob ama</w>
kis s_mark</w>
father sday</w>
exc ep
elec tions</w>
decl ine</w>
con clu
ag ree
W oo
TI ON</w>
S W
PHILIPP INES
Ni k
An th
5 7</w>
2 -
#PS4 share</w>
w are</w>
pse u
promin ent</w>
m and
gi ft</w>
flo or</w>
constitu tes</w>
atu res</w>
amer icans</w>
S om
PHILIPPINES LONG</w>
A zer
v ation</w>
un likely</w>
streng th</w>
over whel
ing -
ho ax</w>
genu ine</w>
f its</w>
de m</w>
Y ep</w>
T L</w>
B Y</w>
ter ri
sto ck</w>
justi fication</w>
int end</w>
imm a</w>
hol ds</w>
ho locaust</w>
fuck fuck
distin ction</w>
democr ats</w>
b les</w>
ag a</w>
D ie</w>
Ar t</w>
Ar abs</w>
wom en's</w>
us a</w>
te a</w>
t less</w>
ou ts</w>
mem ber
lea ves</w>
kid ding</w>
inv ite</w>
deliber ately</w>
co on</w>
bo x
ad ers</w>
RE ALLY</w>
LOS ER</w>
F E</w>
sc ru
pun ishment</w>
pic king</w>
ner ship</w>
mat ches</w>
l ately</w>
cre am</w>
bur g</w>
are n</w>
al coho
U r
P ut</w>
GI VE</w>
F al
D em
AT S</w>
victor y_
tr anny</w>
tox ic</w>
teach ers</w>
t our</w>
sign s</w>
rela tively</w>
olu me</w>
l it
k ni
iz es</w>
gi c</w>
din ner</w>
cap ital
bo om
MON GO</w>
J an</w>
EN E
ul a</w>
ru ined</w>
mat es</w>
leg s</w>
gre ed</w>
fi xing</w>
OU R</w>
Mon day</w>
L ev
Cle arly</w>
AD MIN
jur y</w>
intellec tual</w>
e a
dism is
beam ing_face_with_smiling_eyes</w>
T am
Persi an</w>
MOR E</w>
M ari
H ome</w>
Democr at</w>
viol ates</w>
ver se</w>
v ing_
sub sequ
smir king_face</w>
ru bbish</w>
n y
ga y
fac tor</w>
bull ying</w>
Mex ican</w>
G am
Fun ny</w>
E AT</w>
Cri min
BI G</w>
B en</w>
2 6
1111 111</w>
where as</w>
str uck</w>
ic y</w>
eng ine</w>
ac t
Ra dio</w>
P RE
Me an
H ate</w>
Gr and</w>
1111 1111111</w>
0 5</w>
#T re
weap ons</w>
sus pen
st ress</w>
sh aring</w>
hun gry</w>
hi dden</w>
dic tionary</w>
d ur
ch ur
ari ans</w>
ac compli
a me</w>
U G
Sm all</w>
yclo pa
se at</w>
ne gro</w>
mo on</w>
les bians</w>
l ingu
he rent</w>
di str
construc tion</w>
bar nstar</w>
ab using</w>
K y
Hen ry</w>
: 30</w>
vandal ized</w>
t end
se l</w>
push ed</w>
pro cess
pp ers</w>
pl s</w>
los ers</w>
k u</w>
he il</w>
ele ments</w>
b acked</w>
S ex
R yan</w>
L mfa
un ion</w>
ty ping</w>
sub scri
so c
pre ven
jum ped</w>
inser ted</w>
i g</w>
cor ner</w>
conne c
con dem
c ab
a im
RET AR
CO I</w>
Andre w</w>
wh ilst</w>
ter ing</w>
si de-
reliev ed_face</w>
public ly</w>
our selves</w>
g if</w>
ethnic ity</w>
en tered</w>
c low
SA ID</w>
Jim bo</w>
Gir ls</w>
Con gratulations</w>
Cen ter</w>
thro wn</w>
repres ents</w>
or dered</w>
m ang
i o</w>
gen cy</w>
e wer</w>
d ar
con centr
co s</w>
bo at</w>
10 00</w>
lead ership</w>
hor ri
gam ing</w>
ga b</w>
ch inese</w>
Op en</w>
C as
A v
0 3</w>
pu rely</w>
prim arily</w>
per form</w>
op tions</w>
ess ing</w>
dy 's</w>
d ential</w>
b red</w>
W ars</w>
L ma
Ger mans</w>
G al
viol ated</w>
smo king</w>
reg arded</w>
l ers</w>
great ly</w>
gre w</w>
f at
descri bes</w>
audi ence</w>
For ce</w>
F ar
BA CK</w>
ve re
sil ence</w>
se d
red und
h itting</w>
du des</w>
ci vility</w>
b ble</w>
_ _</w>
Re ferences</w>
Poli cy</w>
Le ft</w>
Hum an</w>
E L</w>
4 th</w>
wh ats</w>
t um
suspic ious</w>
re ti
i fi
dre ams</w>
de l</w>
continu ing</w>
consider ation</w>
The m</w>
T US</w>
S ounds</w>
G amer
Clu b</w>
Bir th
#G IF
w ings</w>
tu m</w>
tech ni
o be
kiss ing_face_with_smiling_eyes</w>
her itage</w>
fore ign
descri p
del us
citiz en</w>
che ating</w>
VAND AL
M UST</w>
Bo t</w>
B attle</w>
suc ce
s an
ra rely</w>
par ty_popper</w>
li brary</w>
k es
inv asion</w>
gor illa</w>
fig ured</w>
e ts</w>
de dicated</w>
S ol
L LO
wor ship</w>
r on
per cent</w>
min orities</w>
cha ir</w>
b illion</w>
O '
M uch</w>
Featu red</w>
F oundation</w>
#GIF WAR</w>
ti s</w>
li ps</w>
k itch
in come</w>
discrimin ation</w>
cr isis</w>
associ ation</w>
IC ANS</w>
CO ME</w>
B Y
offic ers</w>
l on
euro pe
con sul
celebra tion</w>
b ac
Hal loween</w>
F R
D ont</w>
sha pe</w>
princi ples</w>
par tis
mer it</w>
mass ac
ig er
gy m</w>
dist ingu
cri tics</w>
Tac os</w>
Jus tice</w>
CH AN
t ab
incredi bly</w>
doc tor</w>
condi tion</w>
b ound</w>
ar ter</w>
ac tively</w>
tain ment</w>
rais ing</w>
oo t</w>
ll a</w>
id k</w>
grinning_face_with_ sweat</w>
fin ds</w>
ex erc
da w
bre aks</w>
Anth ony</w>
que en</w>
n uclear</w>
mistak en</w>
low ing</w>
fundam en
deep ly</w>
b less</w>
at ri
appro ved</w>
Ye ar</w>
UU UU
S tal
R us
Ques tion</w>
O per
N um
ID E
H us
Ad min</w>
A ca
ush ed_face</w>
tex t
rhe tor
ref lec
qui et</w>
p lo
mouth _and_
mirr or</w>
he at</w>
h ill</w>
gran ted</w>
fic ial</w>
bann ing</w>
as hing</w>
Tran s
Copy right</w>
C UR
ref s</w>
r ics</w>
prefer red</w>
en sive_face</w>
cre w</w>
com ic</w>
all ed</w>
You 'll</w>
W ol
R ever
L IT
D V
you re</w>
woman_ facepalming_
prof it</w>
pose dly</w>
ph et</w>
oo m</w>
in ner</w>
S to
O S</w>
FF FF
v ince</w>
un reliable</w>
specu lation</w>
sh oul
s per
men d
le ment</w>
l or</w>
kin dly</w>
hand ed</w>
comm ented</w>
cl asses</w>
c ell</w>
bit ed</w>
ang le</w>
al i</w>
ad ap
a id</w>
N ope</w>
I I
Hol lywood</w>
A w
satis fy</w>
ph y</w>
ou ting</w>
nes day</w>
i vely</w>
ell er</w>
critic isms</w>
archi ves</w>
Do es
BA G</w>
AN Y
8 3</w>
you th</w>
tran si
so cks</w>
pic ally</w>
ho o</w>
ha dn't</w>
grinn ing_face</w>
expres sion</w>
dep th</w>
challeng ed</w>
cen sored</w>
bus in
asha med</w>
ab used</w>
Tru th</w>
Se c
Person ally</w>
tri vi
tr ag
smiling_face_with_open_ mouth_and_
smiling_face_with_ hearts</w>
pre pared</w>
mm er</w>
el and</w>
dis ci
di ans</w>
de ad
acci dent</w>
MG TO
HA PP
C up</w>
w is
tra de
ta r</w>
slow ly</w>
sh ine</w>
pat tern</w>
l ly</w>
doub le_
cr ack</w>
con ference</w>
cha pter</w>
announ ced</w>
WH ERE</w>
M EX
In tro
Di rec
# summer</w>
vi c</w>
speak ers</w>
sc ary</w>
ra m
pro ving</w>
phen omen
ous ness</w>
heavi ly</w>
de alt</w>
clean ing</w>
cen sor</w>
Jack son</w>
Gu ess</w>
Ex actly</w>
9 11
sh ire</w>
por ted</w>
or n</w>
f all
di um</w>
bre w</w>
bi es</w>
al ization</w>
ad ds</w>
W ed
LG BT</w>
Ho locaust</w>
H i
F as
D s</w>
B OO
Ar bit
ispan ic</w>
de part
ag u
af ford</w>
Arab ic</w>
g g</w>
dri ver</w>
double_ exclamation_mark</w>
d un
ch rist
be half</w>
bas ketball</w>
SUC KS</w>
R FC</w>
M ol
IP s</w>
F ederal</w>
Ca use</w>
w ins</w>
sp here</w>
respon ses</w>
ma ps</w>
ing 's</w>
indic ates</w>
in ity</w>
es tic</w>
ef fic
edit orial</w>
P lan
L en
I dio
F er
Asi ans</w>
ul ty</w>
tho dox</w>
st ats</w>
ou l</w>
les son</w>
kk o</w>
Whe ther</w>
W ay</w>
H ELL</w>
Be au
7 3</w>
ven ess</w>
traf fic</w>
r ick</w>
nation alism</w>
la m
ist ry</w>
gra m</w>
fran kly</w>
de st
coun ts</w>
cer ti
Y a
Vi et
Par is</w>
D A</w>
AM ER
A ss</w>
@user .com</w>
war n</w>
sto le</w>
ra ping</w>
quo ting</w>
inten tions</w>
f alling</w>
disrup tion</w>
ak er</w>
R en
Offic e</w>
De ad</w>
B la
Ab solu
6 .2
0 9</w>
z es</w>
vir tu
metho ds</w>
log ically</w>
fun ding</w>
fantas y</w>
fa i
d or
c up</w>
b in</w>
T ER
Soci ety</w>
Rep ort</w>
G ri
Ed iting</w>
6 7</w>
# cute</w>
vand als</w>
son 's</w>
cell padding</w>
am ong
Y ES</w>
We b
H ani
E lec
Dani el</w>
5 8</w>
tradi tion</w>
ti p</w>
subm itted</w>
sar cas
part ner</w>
on om
infer ior</w>
h b
col ors</w>
ar a</w>
SH OULD</w>
Re cor
Neutr al</w>
L ab
In ci
Associ ation</w>
tac tics</w>
ses sion</w>
rela tions</w>
re rs</w>
is tics</w>
g ery</w>
destruc tion</w>
communic ation</w>
ac i
_ button</w>
S imp
Mic ro
L ef
Foo t
FY I</w>
C ho
Bab y</w>
0 -
u le</w>
regu l
re vi
rap ist</w>
nation ality</w>
medic ine</w>
lmfa o</w>
hund red</w>
hou se
han istan</w>
edit -
compla ints</w>
ch art</w>
a be
S ad</w>
P art</w>
N on-
Hani bal</w>
D ave</w>
# model</w>
v ul
v ague</w>
sup posedly</w>
strateg y</w>
sa y
ran ted</w>
ob jection</w>
li cations</w>
leg it</w>
introduc e</w>
h ind
g ary</w>
eye bro
es say</w>
enfor cement</w>
ell a</w>
d ness</w>
b one</w>
ad o
P D</w>
Liber al</w>
I t
terr or</w>
pri me</w>
heal th
genu inely</w>
d ry</w>
and -
among st</w>
Demo cratic</w>
De ath</w>
9/ 11</w>
threat en</w>
s "</w>
ra ine</w>
r ates</w>
question able</w>
occur red</w>
mobi le_
mem es</w>
m c
loo se</w>
d ancing</w>
bra ins</w>
b at</w>
ali ens</w>
Re search</w>
En joy</w>
B OOBS</w>
AS H</w>
8 7</w>
0 4</w>
str ing</w>
spo ke</w>
sou thern</w>
se ment</w>
per i
my th</w>
g y</w>
emplo yed</w>
W R
IM O</w>
CI A</w>
C L
C A</w>
Birth day</w>
911 You</w>
# e
ven ture</w>
un it</w>
sor ts</w>
require ments</w>
proble matic</w>
organ isation</w>
ob sc
har m
fi re
enti ty</w>
e um</w>
coun ty</w>
ad ults</w>
Pro- Assad</w>
H D</w>
Gen er
G N
EA R</w>
Com ment</w>
8 9</w>
whit e_
utter ly</w>
ro man
review ing</w>
oooo o</w>
ol ing_face</w>
no on</w>
n esses</w>
le st</w>
ill ness</w>
fortun ate</w>
ev in</w>
de au</w>
chr on
che at</w>
blo ck
an k
THE M</w>
T Y</w>
RETAR DED</w>
Ital y</w>
HH HH
G G</w>
Bas ically</w>
B y
8 -
the _
subjec tive</w>
ro o
histor ic</w>
arri ved</w>
a wards</w>
On line</w>
More over</w>
Ma j
L ong</w>
Jord an</w>
#affir mation</w>
youn ger</w>
si de
s witch</w>
reason ably</w>
qu es</w>
ir y</w>
inspi red</w>
gi ant</w>
bu m</w>
apo log
ad er</w>
U NI
P E</w>
E p
D own</w>
Col um
Bit ches</w>
0 2</w>
si a</w>
m ask</w>
li on</w>
l en
judg ement</w>
hard core</w>
favour ite</w>
ex pi
chi ef</w>
cha in</w>
be ach</w>
af fect</w>
advoc ate</w>
Qur an</w>
LA W
Juda ism</w>
H a</w>
C ir
9 .2
tim eline</w>
sho cked</w>
righ t-
re sting</w>
notic es</w>
le g</w>
he re
euro pe</w>
en ship</w>
deser ved</w>
air craft</w>
Sup er</w>
St ay</w>
R el
OFF FUCK</w>
O WN</w>
Mat t</w>
John son</w>
In fo
B lu
Administr ators</w>
A l</w>
A h
tear s</w>
ro se</w>
res sed</w>
repu table</w>
progra ms</w>
phys ically</w>
ne g
natur ally</w>
jo ining</w>
integr ity</w>
fre ak</w>
dang er</w>
con sent</w>
ag o
a uc
N ight</w>
Hind u</w>
B G</w>
- no-
u re
to day's</w>
st ret
sec ure</w>
pot entially</w>
k h</w>
fl ushed_face</w>
dy nam
def en
co in</w>
auth orities</w>
ath le
ap h
albu ms</w>
a b</w>
MEX ICANS</w>
Ex am
Con t
A R</w>
0 .2
# y
# j
sur ance</w>
si e</w>
s me
p in
p ath</w>
mu te</w>
it 'll</w>
homo sexuality</w>
em br
d at
cy cle</w>
comm enting</w>
co sts</w>
che ster</w>
bu ff
bro ad</w>
at or
T U
S pain</w>
S N
IT Y</w>
H ur
D umb</w>
AN AL</w>
1 .2
u l</w>
tic ism</w>
rel ate</w>
pun ished</w>
par as
p p</w>
jour nal</w>
fra me</w>
fil ed</w>
expen sive</w>
e an</w>
ali en</w>
V ol
V a
Some body</w>
M AR
D av
B on
B ay</w>
Ad am</w>
8 1</w>
7 4</w>
# Re
ti er</w>
t ons</w>
ro w
religi ons</w>
r ing
por ts</w>
plann ed</w>
k -
ev il_
dra wn</w>
clari fication</w>
c in
argu ed</w>
Sp ace</w>
LOLO LOLO
Jo in</w>
A -
5 9</w>
view point</w>
tra itor</w>
sh ar
reduc e</w>
pleas ure</w>
ni kko</w>
fuck ers</w>
expres sed</w>
conclus ions</w>
cap acity</w>
assu mption</w>
TH O
N E</w>
EA D</w>
Armen ian</w>
AT I
22 1</w>
# blog</w>
t all</w>
sol ved</w>
prec isely</w>
l unch</w>
imple men
ig an</w>
evil_ monkey</w>
di strict</w>
celebr ate</w>
al right</w>
N PC</w>
Grou p</w>
Bus iness</w>
8 6.1
-no- evil_monkey</w>
tra v
spam ming</w>
sh es</w>
s ers</w>
publi cations</w>
pro secu
prec ed
manu fac
jo h
ing er_
infor mative</w>
demonstr ate</w>
de vil</w>
bi ous</w>
any e</w>
_ am</w>
U L
Se curity</w>
Reque sts</w>
No v</w>
Mil itary</w>
L ady</w>
I' M</w>
9 7</w>
3 -
#i _am</w>
z one</w>
sp in</w>
r out
m f</w>
long -
hy per
di vision</w>
destro ying</w>
de pic
civiliz ation</w>
cho col
WW E</w>
Sor os</w>
Macedon ia</w>
Im ages</w>
1 ,
# h
se as
s ick
ri p</w>
rep lies</w>
o le</w>
newcom ers</w>
n ight
l an</w>
es o
de te
de aths</w>
centur ies</w>
an al</w>
Sen ate</w>
Publi c</w>
P C
N ar
Cr u</w>
A ward</w>
# quote</w>
out come</w>
n ick
n ate</w>
inter nal</w>
illi ant</w>
hor ny</w>
gni tion</w>
fav our</w>
f w</w>
di g</w>
d dl
cul tures</w>
ch op
app lication</w>
ancest ors</w>
Te am</w>
Qu o
Con stitution</w>
zz y</w>
te am
sole ly</w>
pu lling</w>
po e
na tives</w>
id ance</w>
des perate</w>
W on
W O
Paki stan
# me</w>
w en</w>
vi o</w>
tr ick</w>
tb h</w>
schol arly</w>
no vel</w>
middle_f inger_
j ack</w>
hum or</w>
enc yclopa
dy kes</w>
di tion</w>
defini tions</w>
d _face</w>
Uk rain
S weden</w>
Res pon
Mon ey</w>
M ess
I g
CO MP
Br ad
At lan
Al ter
7 .2
5 th</w>
#Tre Cru</w>
y p
tal kin</w>
scre am
invol ving</w>
har ras
ha z
car to
back wards</w>
ash es</w>
Sou thern</w>
O ff
No tr
M I
Jus tin</w>
G ab
EE P</w>
#No w
vehic le</w>
un constructive</w>
sing ing</w>
sexu als</w>
sex ually</w>
ru ining</w>
prof essor</w>
pedophi le</w>
mu d</w>
issu ed</w>
hypocr ite</w>
gi e</w>
f ted</w>
d d</w>
cre ep
co ordin
be red</w>
Ye a</w>
Por tu
H R
B N</w>
# love
worl d's</w>
paren t</w>
pa int</w>
oun ts</w>
organ ized</w>
ing_ in_
in tim
in fin
face book</w>
ang r
S pi
H EL
Gold berg</w>
ACC ESS</w>
7 -
sha ved</w>
se arching</w>
rema ining</w>
persi st
ow nership</w>
low ers</w>
li an</w>
du ty</w>
do zen</w>
dist ance</w>
cro wn</w>
cat_ with_
bre ath</w>
bas eball</w>
adop ted</w>
Th ree</w>
R R
H an
F em
A P</w>
8 2</w>
w age</w>
up s</w>
thumbs_ up
st ood</w>
s che
rela tive</w>
recei ving</w>
p ile</w>
nomin ate</w>
my ster
hom es</w>
fac il
dro p
differen tly</w>
conven tions</w>
che ese</w>
ada ys</w>
L aw
7 9</w>
war ded</w>
vic tory</w>
trans gender</w>
remin der</w>
promo ted</w>
pro se</w>
ordin ary</w>
no tion</w>
n ut
m it</w>
m g</w>
journ alist</w>
ite c
gre y</w>
gre es</w>
go v
gi es</w>
gg er</w>
ev al
ear ned</w>
convic ted</w>
b ones</w>
b il
V en
K E
IN E</w>
I II</w>
C D</w>
Addi tionally</w>
A re
ty pically</w>
tic kets</w>
th at
pre judi
je alous</w>
histor ian</w>
fundam ental</w>
co inci
T ay
N D</w>
Europe ans</w>
Coun try</w>
AR S</w>
vom iting</w>
vari ety</w>
trus ted</w>
ther 's</w>
suc ker</w>
redund ant</w>
person 's</w>
man agement</w>
ju ice</w>
in i</w>
domin ate</w>
coo king</w>
bitch es.
and ro
af f
VER Y</w>
V eg
Trump 's</w>
T ar
P age
LOO K</w>
D an
C SD</w>
up side-
s wit
occup ation</w>
mobile_ phone</w>
meas ure</w>
exc es
com ics</w>
circum c
bri ef
ba star
a x
P S
Moha mmed</w>
K han</w>
Ci vil</w>
AN T</w>
world wide</w>
woman_ shrugging_
win ner</w>
w ich</w>
ste aling</w>
speci fies</w>
ran k</w>
pro mp
prin ted</w>
k er
ja b</w>
j o</w>
h anging</w>
e lo
comp licated</w>
as yl
agi ar
Orig inal</w>
Ma in</w>
M ark
E ric</w>
C om</w>
war m</w>
sc and
retur ned</w>
proced ure</w>
ple _heart</w>
m ex
l -
grinn ing_
glo bal
defe at</w>
al lies</w>
V an
D an</w>
B LA
ve away</w>
ti se</w>
the day</w>
st fu</w>
spe lled</w>
publish er</w>
or ange</w>
man ager</w>
kill s</w>
ick y</w>
gu itar</w>
for gotten</w>
encour aged</w>
co w
R on
F at</w>
D ark</w>
A A</w>
# good
# fathersday</w>
vir tually</w>
thumbs_ up</w>
thro wing_a_kiss</w>
suppor ter</w>
ow ners</w>
isra el</w>
i tion</w>
hh hh
face_ throwing_a_kiss</w>
den ial</w>
con form
com pati
Y our
Ser vice</w>
Ser bian</w>
P D
L iter
D uring</w>
B EEN</w>
y r</w>
watch list</w>
ti le</w>
promis ed</w>
pi e</w>
e dia</w>
disap pointed</w>
dep ends</w>
bitches. fuck</w>
agree ing</w>
ac es</w>
We e
Ver ifi
Go d
4 -
sex Sex</w>
on ing</w>
nic ca</w>
l or
inv al
hahahaha hahahaha
exten sive</w>
bit ter</w>
b id</w>
Than k
Reli gi
Be li
A greed</w>
8 4</w>
ul es</w>
tu tor
thre w</w>
sta ying</w>
skin ny</w>
s lan
pres sive</w>
obses sed</w>
mon o
mil k</w>
ion ship</w>
id en
direc tor</w>
contr act</w>
archi ved</w>
T en
Palestin ian</w>
No tice</w>
K er
ENE ID</w>
D ENEID</w>
ph en</w>
par tial</w>
p izza</w>
outr ight</w>
ma 's</w>
m ers</w>
lim its</w>
it y
hot _face</w>
homopho bic</w>
experi ences</w>
em er
ca u
at er
alcoho l</w>
Secon dly</w>
MGTO W</w>
6 -
self ish</w>
r and
practic es</w>
p ers</w>
p ack
op posing</w>
ob lig
it ual</w>
fi f
fa ster</w>
f ts</w>
el ing</w>
comple ted</w>
clim b</w>
be ings</w>
P LA
LI FE</w>
L es
D utch</w>
D re
CK ED</w>
CA USE</w>
9 2</w>
# new
upside- down
upside-down _face</w>
relev ance</w>
re gre
p ump</w>
mon d</w>
le e</w>
i ently</w>
fing ers</w>
e z</w>
att ached</w>
ar r
a im</w>
Willi ams</w>
W AL
V -
Scot land</w>
Mu hammad</w>
Mo der
Lear n</w>
Le ban
J un
EN D</w>
E ver</w>
Contro ver
B lo
5 .2
#s il
# Trump
trivi al</w>
spark l
sparkl ing_heart</w>
shop ping</w>
sch o
ree- revert</w>
perman ent</w>
mo tion</w>
le de</w>
fil ter</w>
disgr ace</w>
cr us
bur ning</w>
break fast</w>
au dio</w>
accur ately</w>
ab and
SH E</w>
Fran k</w>
Educ ation</w>
Ch an
C ru
supp ly</w>
politic ian</w>
ow ns</w>
fi elds</w>
c uck</w>
Su rely</w>
S lo
Pro f
Pro ble
Pr ince</w>
K u
B ey
App le</w>
ur y</w>
ur ge</w>
tra p</w>
t ables</w>
strong er</w>
some time</w>
si ties</w>
ser ves</w>
pus sies</w>
po lar</w>
min s</w>
load ed</w>
ki kes</w>
gu s</w>
er o</w>
ele ment</w>
e ties</w>
direc tory</w>
cu tting</w>
contain ed</w>
cap tion</w>
asses sment</w>
am on
ag no
W AT
Person al</w>
H ER</w>
C lo
Au th
9 8</w>
- -
y moron</w>
su p</w>
se lected</w>
re written</w>
ra di
pati ence</w>
oc cur</w>
logi sts</w>
life style</w>
j esus</w>
inten tionally</w>
face_ vomiting</w>
en th
disci pl
daw g</w>
boo k
beg ins</w>
al o</w>
a vi
Th ird</w>
R ights</w>
K im</w>
IR C</w>
G lad</w>
Discus sion</w>
Car ol
B AN
6 th</w>
# St
user 's</w>
ul timate</w>
ta pe</w>
t ance</w>
str uggle</w>
speak er</w>
rul ed</w>
r ating</w>
li qu
hypocr isy</w>
high -
go in</w>
brain washed</w>
app le</w>
Ser bia</w>
Ro ad</w>
Ko so
Ha wa
Go ing</w>
Conf lict</w>
As k</w>
9 -
6 3</w>
wal ked</w>
w ash</w>
trigg ered</w>
ti ed</w>
tho le</w>
sleep ing</w>
sh i</w>
rec k
r t</w>
intim id
go ti
ga p</w>
fro g</w>
f fy</w>
dro me</w>
co ward</w>
c ites</w>
Verifi ability</w>
V ia</w>
Regar dless</w>
ER O</w>
Des p
Br o</w>
year -
v is</w>
suspen ded</w>
sha ke</w>
ne o-
motiv ated</w>
li ament</w>
leg is
ha ble</w>
go ver
gar den</w>
car ried</w>
U M</w>
Le ts</w>
H ou
FA C</w>
DO WN</w>
D or
D er
w ra
uu uu
trans late</w>
situ ations</w>
require ment</w>
p ng</w>
na p
man age</w>
lo s</w>
impro vements</w>
gro wth</w>
g ent</w>
ex change</w>
Y E
Jose ph</w>
In tel
HA S</w>
Afg hanistan</w>
A G</w>
wat er
tr uck</w>
they 'd</w>
sock puppetry</w>
rul ing</w>
regul arly</w>
photo graph
per secu
mode ls</w>
mobi le</w>
meaning ful</w>
is sion</w>
h ateful</w>
ex hi
eng aging</w>
effec tively</w>
dri ven</w>
d us
cover ing</w>
conven tion</w>
be an
an ic</w>
O ly
Liber als</w>
A dam
# music</w>
v it
squ are</w>
sett led</w>
mo le
mo b</w>
ly rics</w>
leg als</w>
fir m</w>
f ist</w>
expan sion</w>
de grees</w>
citiz enship</w>
asyl um</w>
art .
ans as</w>
V ES</w>
Sa ys</w>
Macedon ian</w>
Ma y
C el
A H</w>
199 9</w>
" This</w>
z y_face</w>
x on</w>
vag ina</w>
suff ering</w>
rel ating</w>
reco gnition</w>
re cru
objec ts</w>
newsp apers</w>
musical_ notes</w>
ke l</w>
in ev
i est</w>
hur ts</w>
har sh</w>
clo sing</w>
car ds</w>
ann ing</w>
TH ERE</w>
Ph one</w>
N ation</w>
Min ister</w>
Contribu tions</w>
Arbit ration</w>
w p</w>
u b
tra vel
pr ick</w>
igg er</w>
explan ations</w>
construc ted</w>
con su
b read</w>
acc es
T ha
St at
S ock
N either</w>
Georgi a</w>
D ro
C at
C HA
ve g
to e</w>
targe ted</w>
sna ke</w>
s adly</w>
rec re
rac ing</w>
publi sh</w>
pres sing</w>
mind set</w>
mil it
mi x
gra b</w>
degener ate</w>
bal lo
ab e</w>
V E
Pr in
Intro duction</w>
Femin ism</w>
3 .2
ul l
tra ined</w>
tal es</w>
sne ez
sho w
sh el
sett le</w>
ro ots</w>
ris on</w>
ev ed</w>
decl ined</w>
con tradi
bi zar
b illi
Wh it
RE AD
R on</w>
M iss</w>
D ELE
C alling</w>
Arb Com</w>
: @</w>
#MK R
woo zy_face</w>
squint ing_face</w>
se v
rr rr
pati ent</w>
mo squ
men tary</w>
m me</w>
grinning_ squinting_face</w>
emp ire</w>
d ings</w>
at ers</w>
accep ting</w>
Ra ther</w>
FA C
D ic
vis ible</w>
rever se</w>
r ings</w>
progres sive</w>
ph a</w>
page delete</w>
noti fication</w>
load s</w>
leg end</w>
indi an</w>
he ight</w>
h ook</w>
for ums</w>
employe es</w>
ed -
cho ices</w>
c i</w>
ang e
ac ies</w>
Pu tin</w>
Pri me</w>
P un
LAW DY</w>
Do ing</w>
Desp ite</w>
Comp any</w>
A ge</w>
sa ving</w>
reve aled</w>
ren ess</w>
na ked</w>
make up</w>
e ars</w>
desc end
be have</w>
are r</w>
Su n</w>
K I
In st
He brew</w>
G ur
Croati an</w>
; -)</w>
20 th</w>
y u</w>
trans lated</w>
th ful</w>
so vere
sh its</w>
representa tive</w>
meaning less</w>
kni fe</w>
ic h
hol es</w>
g al
f rench</w>
empha sis</w>
de v
believ ing</w>
b ite</w>
Op pose</w>
H IM</w>
De fin
Be en</w>
B RE
AS S
201 9</w>
tr ic</w>
t ted</w>
str um
si mul
reve al</w>
re ject</w>
mis erable</w>
lic s</w>
hosti le</w>
concep ts</w>
ch a</w>
af fected</w>
addres sing</w>
ac he</w>
a a</w>
Notr hb
G OOD</w>
Enc yclopedia</w>
A ga
201 8</w>
ys outh
ysouth ban
ysouthban of</w>
would n</w>
squ ad</w>
sp an</w>
sing er</w>
semi tism</w>
regi ster</w>
po v</w>
me ta
mal ic
lic ate</w>
f on
bri tish</w>
b our
alo gue</w>
WH EN</w>
Notrhb ysouthbanof</w>
N ick</w>
LI CK</w>
Glo bal</w>
FUCKFUCKFUCKFUCK FUCKFUCKFUCKFUCK
C RE
Amaz on</w>
x ious</w>
u pper</w>
tur ing</w>
tes y</w>
str ugg
st amp</w>
signific antly</w>
pre mi
pre ference</w>
pe aceful</w>
p igs</w>
nnnnnnnnnnnnnnnn nnnnnnnnnnnnnnnn
hosp ital</w>
foun der</w>
du bious</w>
demo cratic</w>
ch er
c c
bus h</w>
build ings</w>
boo ty</w>
b right</w>
ag ers</w>
aaaaaaaaaaaaaaaa aaaaaaaaaaaaaaaa
K elly</w>
EV EN</w>
yuyuyuyuyuyuyuyu yuyuyuyuyuyuyuyu
un its</w>
tro ops</w>
the me</w>
substanti ally</w>
sneez ing_face</w>
perm itted</w>
m ir
inter views</w>
in o
foreign ers</w>
delus ional</w>
col li
b ags</w>
appro val</w>
UR E</w>
Th ursday</w>
S am</w>
R un
Mean while</w>
E d</w>
Did n't</w>
Ch ild
ART IC
# my
# I
yyyyyyyyyyyyyyyy yyyyyyyyyyyyyyyy
x c
tou ched</w>
to i
su dden</w>
oper ating</w>
mis e</w>
liter al</w>
li ties</w>
ill en
i ally</w>
esca pe</w>
di ct</w>
coun ting</w>
ch im
administ rative</w>
_f lag</w>
Th ings</w>
S M</w>
L is
Egy pt</w>
CON T
we as
un related</w>
tri via</w>
ti ous</w>
tem per
t at
re mark</w>
rap ists</w>
qu ette</w>
pass age</w>
iter ate</w>
ir o</w>
in dia</w>
home less</w>
do t</w>
comm ie</w>
close d_eyes</w>
Swe dish</w>
Ser ies</w>
ST E
Page BG</w>
P us
P hy
Main PageBG</w>
M B
LE G
He ad
H all</w>
EVER Y
D U
tytytytytytytyty tytytytytytytyty
sm an</w>
partis an</w>
lig ence</w>
do ors</w>
bre eding</w>
ben e
V ill
Ta i
T on
Sau di</w>
In v
Com ple
AN K</w>
your selves</w>
yel low
tutor ial</w>
sign ing</w>
shi ft</w>
ret weet</w>
re tired</w>
quo tation</w>
off ers</w>
mo ck</w>
he 'll</w>
fac ing</w>
exerc ise</w>
dres sed</w>
defin ite</w>
confi dence</w>
c is</w>
av an</w>
Sh er
NO THING</w>
AS T</w>
196 7</w>
# gold</w>
verifi ability</w>
tri be</w>
supremac ist</w>
restaur ant</w>
resour ce</w>
ren amed</w>
percei ved</w>
exten ded</w>
ex pe
dra wing</w>
dele tions</w>
corrup tion</w>
assa ul
ab ilities</w>
Do g</w>
BU M</w>
#sil ver</w>
# Q
ur a</w>
twee ting</w>
to wns</w>
te ar</w>
sho ck</w>
mur de
kill er</w>
gr as
g al</w>
ex pose</w>
dom estic</w>
ass ass
an ing</w>
afr ica</w>
Y O</w>
Wi zard</w>
Ma king</w>
J es
Cl ass</w>
Ad d</w>
#al t
#8 221</w>
ra w</w>
qu er
po o</w>
libt ard</w>
indic ated</w>
indi genous</w>
f illing</w>
ex pl
en a</w>
cir cu
OO O</w>
Does n't</w>
ve -
stur b
stor m</w>
scienti st</w>
scho lar</w>
ni g</w>
kno ck</w>
it ness</w>
hal f-
get tin</w>
fic tional</w>
e g</w>
divor ce</w>
der -
cr ash</w>
christi ans</w>
a z</w>
Tor onto</w>
S on</w>
S imply</w>
S ID
Or gan
K anye</w>
Ji ha
Gree ks</w>
Che ster</w>
Al most</w>
# New
z o
soci alism</w>
rou te</w>
ne goti
he ter
har ass</w>
fa iling</w>
dol lar</w>
b on</w>
acknowled ged</w>
TR UM
Reli able</w>
R y
R FA</w>
Jim my</w>
Im a</w>
Foot ball</w>
Bru h</w>
A k
# selfie</w>
# family</w>
y ment</w>
way sto
semi tic</w>
selec ting</w>
perman ently</w>
in er</w>
hat ers</w>
f i</w>
else 's</w>
clean up</w>
attribu ted</w>
am ounts</w>
al pha
al izing</w>
TO O</w>
N ED</w>
En d</w>
E conom
D own
7 1</w>
weap on</w>
waysto heal</w>
w il
vac ation</w>
underst and
un -
tr act</w>
sur vey</w>
sun day</w>
sho wer</w>
se em
repres enting</w>
li fied</w>
kitch en</w>
hom in
el ite</w>
den ying</w>
demonstr ated</w>
de fault</w>
conver t</w>
con temporary</w>
br u
ba thro
ar i</w>
UN D
S ER
Oly mp
O ff</w>
J ay</w>
EL Y</w>
Be low</w>
#alt waystoheal</w>
v olume</w>
stri kes</w>
snow fla
she et</w>
rais ed_
post -
p her</w>
origin s</w>
or ney</w>
m r</w>
ick et</w>
hea ven</w>
gy p
gener ations</w>
dist or
dishon est</w>
con form</w>
co t</w>
cha n</w>
ch at
cam ps</w>
an ia</w>
after noon</w>
Tech no
Po or</w>
NN NN
Met al</w>
K at
In c</w>
Eng lish
un fortunate</w>
tic ket</w>
sen ior</w>
s wa
s laugh
ri fic
pl om
ph ones</w>
hous es</w>
fa me</w>
consist ency</w>
com edy</w>
blo gs</w>
Wor k</w>
Tal k
T -
SO ME</w>
Ret ur
RET ARD</w>
O ct</w>
Nik ki</w>
L em
Jef f</w>
F ive</w>
we l</w>
w ild
up dates</w>
tre ating</w>
t am
stu dio</w>
st ations</w>
se ss</w>
neighbor hood</w>
n am</w>
interpre ted</w>
hum an
en coun
depart ment</w>
app lic
SH I
Ra j
O THER</w>
Exc ept</w>
DD DD
Con spiracy</w>
CRAPCRAPCRAPCRAP CRAPCRAPCRAPCRAP
B AN</w>
AS SHO
A P
9 6</w>
# beautiful</w>
v as
sub stance</w>
scream ing_in_
screaming_in_ fear</w>
ro t</w>
ri e</w>
remin ds</w>
re plying</w>
pend ent</w>
mag ic</w>
i k</w>
face_ screaming_in_fear</w>
en ess</w>
constitu tion</w>
conne ct</w>
bo i</w>
as f</w>
We 've</w>
Uk raine</w>
Ox ymoron</w>
Ox ford</w>
Ken ne
Chi ef</w>
Afr icans</w>
sp an
si sters</w>
ri ver</w>
replac ement</w>
referen cing</w>
popu lar
n -
it ty</w>
ho tel</w>
ff in</w>
dro pping</w>
clu bs</w>
bu re
bu g</w>
bott le</w>
be ll</w>
acci dentally</w>
R oc
Mon t
MO S</w>
L a</w>
D M</w>
Con tin
B ack
ur ban</w>
t arian</w>
sur gery</w>
scre am</w>
ligh ting</w>
govern ments</w>
ger man</w>
fl ags</w>
far m</w>
el abor
adv anced</w>
Wi k
Vir gin
Offic ial</w>
Gre en
Fin al</w>
D ol
# fore
who res</w>
was nt</w>
ul timately</w>
tri bes</w>
so m</w>
sche me</w>
sal ute</w>
ret t</w>
rest le
reduc ed</w>
plac ing</w>
ou n</w>
mon keys</w>
fantas tic</w>
face_ sav
ed a</w>
c oug
bastar ds</w>
Wom an</w>
S po
Re pe
Or der</w>
L oc
Com ments</w>
x x
th ic</w>
sus pected</w>
ro ot</w>
pl agiar
kno w
fli x</w>
eth ical</w>
de als</w>
commun ism</w>
comm ent
bizar re</w>
bigo ted</w>
aw k
_ ball</w>
U g
St and
H ill</w>
Egy p
sli de</w>
sk y
ri ding</w>
n ig
journ alists</w>
he 'd</w>
g host</w>
f c</w>
est y</w>
em an</w>
ed ge</w>
e ight</w>
dif f
cri ti
confir mation</w>
chan ces</w>
believ able</w>
b ucks</w>
W an
Tur ks</w>
Se ason</w>
Ri ver</w>
M US
J PG</w>
F ord</w>
F ine</w>
E liz
D ems</w>
vis ions</w>
sum ably</w>
st un
raising_ hands_
po l</w>
off ering</w>
j am
in ary</w>
heal ing</w>
for give</w>
fal sely</w>
de emed</w>
cros sed
Palest ine</w>
N u
Ke ep
K K</w>
F ree
E le
B ased</w>
AMER IC
19 th</w>
un ci
now adays</w>
no te
me at
igh ty</w>
ic t</w>
gu ard</w>
facil itate</w>
fac tors</w>
di et</w>
de vice</w>
de my</w>
ba ij
b acks</w>
ag ues</w>
ac comp
WH O
Vic tor
SE E</w>
Russi ans</w>
Mic h
M ight</w>
Crimin al
BL M</w>
we 'd</w>
virtu e</w>
s ence</w>
ro yal</w>
ro l</w>
essenti al</w>
es is</w>
dra g</w>
cha m
am an</w>
accord ance</w>
Mc C
EVER Y</w>
9 1</w>
# not
# bihday</w>
v ine</w>
us al
un ited</w>
t ard</w>
si ded</w>
ri er</w>
par ti
olu tionary</w>
hor r
graph ics</w>
es p
disa ster</w>
desc ent</w>
de pending</w>
comb ined</w>
c s</w>
bom bs</w>
blat antly</w>
adequ ate</w>
Vo te</w>
Pl ay</w>
P er</w>
K evin</w>
Inte resting</w>
Imm ig
Fran cis
F O</w>
Ed gar</w>
D P</w>
Commun ist</w>
surpr ising</w>
ru b
re l</w>
per ver
n it
men 's</w>
man ual</w>
li ars</w>
lef tists</w>
go sla
ex -
co w</w>
clo ck</w>
S of
S L
Bo y
y rs</w>
tt on</w>
the ore
t fully</w>
pres enting</w>
on ically</w>
m acy</w>
inst ant</w>
im pe
head er</w>
gam e
g ab
communic ate</w>
blo wn</w>
big ot</w>
ari us</w>
angr y_face</w>
Wal k
T im</w>
Mo ve</w>
MM MM
G old</w>
F am</w>
# Red
z ens</w>
v ar
r ag
pro phet</w>
poe try</w>
p asses</w>
li king</w>
foot note</w>
fl ash</w>
ff le</w>
d am</w>
cre ative</w>
cour ts</w>
correc ting</w>
constitu te</w>
br illiant</w>
am ate
X X
Tru deau</w>
Tr ying</w>
Tay lor</w>
R A</w>
He ad</w>
H ence</w>
EDI T</w>
E th
Criminal War</w>
A K
th _
t we
su ffe
sto len</w>
publish ing</w>
partic i
p in</w>
ner ve</w>
mo dif
li pp
k Steve</w>
journ alism</w>
indi cation</w>
im plying</w>
il legals</w>
i um</w>
hypo critical</w>
gu idance</w>
fe t
cre ates</w>
colum n</w>
apolog ise</w>
ambig uous</w>
al and</w>
Sand box</w>
PI E
M ade</w>
Bun kSteve</w>
Absolu tely</w>
wor ker</w>
w ine</w>
ut ting</w>
stop ping</w>
so oner</w>
rela x</w>
ra ti
pro d</w>
po s</w>
po ly
la unch</w>
ion ally</w>
incre asing</w>
in corpor
gr and</w>
ge ous</w>
f est</w>
displa yed</w>
co ach</w>
bul let</w>
ag an</w>
Sen ator</w>
S Y
MA KE</w>
Lan gu
Du ke</w>
" You</w>
wiki -
um a</w>
requ ently</w>
or al</w>
m ies</w>
i x</w>
fac tually</w>
e ats</w>
conflic ts</w>
ass ist</w>
as sure</w>
ari anism</w>
THE N</w>
N ever
Inst agram</w>
Go tta</w>
G S</w>
Bo ard</w>
AL I
year- old</w>
y ard</w>
we t
w at</w>
v acc
sy mp
sh ill</w>
regre t</w>
proce ed</w>
pleas ant</w>
percen tage</w>
p outing_face</w>
obsc ure</w>
m i</w>
in definitely</w>
in ch</w>
fil th</w>
ex ual</w>
enc ing</w>
bro wn
boo t</w>
ap s</w>
an e
Win dows</w>
Nav y</w>
M ust</w>
M ass
IT 'S</w>
D UM
C ase</w>
A bra
wit ness</w>
w y
usal em</w>
und ue</w>
tic ul
particip ation</w>
mis understanding</w>
mer ging</w>
mean time</w>
man_facepalming_ medium_skin_tone</w>
ma tically</w>
ir a</w>
inst ances</w>
id ly</w>
den i
d u</w>
custom er</w>
com ing_
cle ver</w>
an xi
Wor l
Sour ces</w>
Prof essor</w>
LI ON</w>
D one</w>
199 8</w>
w ishing</w>
phras es</w>
on coming_
non y
mis sions</w>
mi xing</w>
ma ma</w>
judg ment</w>
iden tical</w>
guaran tee</w>
gr ab
exclus ively</w>
exces sive</w>
deb t</w>
conform ance</w>
con fron
be ef</w>
ant a</w>
VANDAL ISM</w>
Se ction</w>
SO ME
S OU
EL ESS</w>
D aw
: /</w>
0000 0000
# friends</w>
would 've</w>
war rant</w>
t z</w>
sur face</w>
sta yed</w>
skin s</w>
satis fied</w>
roll s</w>
repe ating</w>
pro to
plan ts</w>
mus ical</w>
is m
invol ve</w>
in stein</w>
in competent</w>
gu essing</w>
gen ius</w>
ga ined</w>
enjo ying</w>
engine ering</w>
di l
conf use</w>
chic ks</w>
car rying</w>
c ue</w>
b lessed</w>
achiev ed</w>
FUCK IN</w>
Every body</w>
En ough</w>
C oo
B ill
Att ack</w>
# weekend</w>
wi pe</w>
war ming</w>
te ous</w>
rev olution</w>
par aph
pain ting</w>
ou red</w>
oooo oooo
og y</w>
m itt</w>
lef t-
labe led</w>
isla mic</w>
flexed_bic eps</w>
emo tions</w>
ear n</w>
cop ies</w>
chocol ate</w>
K NO
D istr
B ow
6 8.
#fore x</w>
wink ing_face_with_tongue</w>
st um
ro les</w>
mig rants</w>
log ging</w>
inspi ration</w>
initi ally</w>
h -
guil t</w>
gi ble</w>
europe an</w>
dif fs</w>
da k</w>
cr uc
bla ming</w>
bio graphical</w>
ati e</w>
Y o
UT H</w>
S uck</w>
S AY</w>
R ick</w>
R ich</w>
L im
K am
F L
COCKSUC KING</w>
An n</w>
vandal ising</w>
se g
pro por
prac tical</w>
mas cul
k m</w>
ir ts</w>
ic able</w>
gre g
docum entation</w>
coun cil</w>
cl as
avo ided</w>
as ka</w>
ancestr y</w>
_ __</w>
S tri
S es
Pe ace</w>
Gre etings</w>
Fre edom</w>
Boo ks</w>
Bo x</w>
B ang
B US
Adam s</w>
199 0</w>
wh i
smil ing</w>
sev ere</w>
sac rific
offici als</w>
mur dering</w>
mo s</w>
k u
k an</w>
invol ves</w>
independ ence</w>
immedi ate</w>
fli p</w>
es cal
enjo yed</w>
en s
ema ils</w>
b ars</w>
ac ed</w>
ab ase</w>
Val ley</w>
Ukrain ian</w>
P ir
Na tive</w>
E s
Al lah</w>
Al i</w>
- related</w>
vir gin</w>
thro at</w>
th reads</w>
t ank</w>
stric tly</w>
sp it</w>
schol ar
rom ney</w>
regi me</w>
ra il
r age</w>
que ers</w>
on ian</w>
ob tained</w>
na use
ex termin
en force</w>
ca sting</w>
bio logical</w>
ali ke</w>
Sim ple</w>
Sar ah</w>
M a</w>
HO M
G R
E f
D -
Ar th
7 th</w>
) "</w>
zzzzzzzzzzzzzzzz zzzzzzzzzzzzzzzz
war ranted</w>
ver ty</w>
un educated</w>
perform ed</w>
mo ds</w>
ji ha
ha bit
distin ct</w>
dis agrees</w>
creep y</w>
coun tless</w>
comm ittee</w>
clapping_ hands</w>
c as</w>
bra ve</w>
ar cha
activ ist</w>
Y AA
Wr ong</w>
W ay
W AR
T RA
Pro duc
P as
In formation</w>
IS S
G il
B OT</w>
7 1.1
4 00</w>
2 /
wik il
the -
tele phone</w>
t an</w>
sta ys</w>
spac ing</w>
modi fied</w>
k j
jo king</w>
inve st
im pressed</w>
ide o
ha r</w>
h unt</w>
fun ded</w>
em o</w>
e ce</w>
d anc
clus ive</w>
ch y</w>
as ia</w>
al ert</w>
Y A</w>
W tf</w>
RAC IST</w>
N ations</w>
M C</w>
L ic
F red</w>
CO UN
#Now Playing</w>
un cle</w>
ti re</w>
ti m</w>
stra w
st al</w>
respec tive</w>
kno wled
inser ting</w>
histor ically</w>
hand led</w>
for cing</w>
down load</w>
dis agreement</w>
beat en</w>
all -
ag ency</w>
Soci alist</w>
Rep ly</w>
IS BN</w>
He alth</w>
H mm</w>
E arly</w>
CO R
Bo ys</w>
B locked</w>
# x
# in
us i
un a</w>
thir d-
righ t_
ret ary</w>
resi stance</w>
profes sion
nor thern</w>
mes sed</w>
lab or</w>
ide al</w>
h ang
f ist
b ound
a stro
TA KE</w>
Ste phen</w>
O reg
MAN N</w>
JE WS</w>
Ch uck</w>
B om
# o
yellow _heart</w>
tr um</w>
stra tion</w>
sho e</w>
sh ing</w>
s at</w>
red_ exclamation_mark</w>
person _
p y</w>
out _
m ary</w>
fe ction</w>
en -
docum entary</w>
cu ts</w>
ch ann
bur den</w>
ang es</w>
WWWWWWWWWWWWWWWW WWWWWWWWWWWWWWWW
Tr ust</w>
PO TUS</w>
Jud ge</w>
wi ves</w>
t w</w>
sm oo
ro y
res sion</w>
p -
opho bia</w>
o b</w>
o 's</w>
muzz ies</w>
li est</w>
ir ony</w>
interven tion</w>
he rently</w>
embarras sing</w>
ea stern</w>
dou che</w>
campa ign
bl unt</w>
bi ble</w>
ac qu
_ medium_skin_tone</w>
Pat ri
PIE CE</w>
Or thodox</w>
N iger
N FL</w>
Exc use</w>
C ool</w>
AG F</w>
A C</w>
9 3</w>
4 /
we e</w>
wat er_
un followed</w>
success fully</w>
sc are</w>
nn y</w>
n as
man ia</w>
lon ely</w>
it ating</w>
ip ment</w>
incre ased</w>
hand_ medium-dark_skin_tone</w>
flexed_biceps_ medium-dark_skin_tone</w>
f us
f lat
expec ting</w>
dr inks</w>
do zens</w>
dig ital</w>
dec ade</w>
col Fuck</w>
ca ste</w>
b ay</w>
b -
af fec
adop t</w>
acc ent</w>
YY YY
Wh ite
Sy stem</w>
NE ED</w>
Mar colFuck</w>
G ames</w>
F RI
C are
B AB
9 4</w>
we ir
wa sted</w>
val id
ter 's</w>
su its</w>
sto res</w>
sna p</w>
sha me
sh ark</w>
sc am
rhetor ic</w>
rain bow</w>
ra ys</w>
priv acy</w>
oper ate</w>
min ister</w>
mer its</w>
ev a</w>
endor se</w>
ballo on</w>
at i</w>
associ ate</w>
ann iver
W all
S l
Por tal</w>
Micro soft</w>
F el
Ch ri
C e
BE CAUSE</w>
B ye</w>
B ank</w>
B IL
ASSHO LE</w>
AB C</w>
toler ate</w>
sock puppets</w>
sc um
s now</w>
redirec ted</w>
rand om
o tic</w>
massac re</w>
ma sturb
lu ded</w>
l acks</w>
it i</w>
incredi ble</w>
i tive</w>
i -
hel la</w>
h ire</w>
f oundation</w>
f D</w>
deri ved</w>
cour tesy</w>
chem ical</w>
boy mamas</w>
att end</w>
anti fa</w>
accord ingly</w>
WIK I</w>
UC H</w>
Pro jec
M ind</w>
L ew
How ard</w>
F requently</w>
Cul ture</w>
Azer baij
Al right</w>
# day</w>
wor ded</w>
th ing
sh ell</w>
pa ki
p it</w>
p il
nation alists</w>
jud ging</w>
ir onic</w>
igh ting</w>
h tt
h ist</w>
eyebro w</w>
ex ha
ell ed</w>
dis respectful</w>
correc tions</w>
comb ination</w>
author it
Wed nesday</w>
WA YS</w>
Ty pical</w>
Tu esday</w>
S HA
Id k</w>
F ire</w>
Eliz abe
DV D</w>
A F</w>
you t</w>
wh ining</w>
tr im
thor oughly</w>
stu dying</w>
re m
op pressed</w>
oo s</w>
occup ied</w>
mom ents</w>
member ship</w>
ma ker</w>
la tive</w>
insul ted</w>
hoo ds</w>
green _heart</w>
f le</w>
de al
custom ers</w>
blan king</w>
bal d</w>
a e</w>
Yu gosla
SE CUR
K ir
C hel
A qu
A 7</w>
to tal
termin ology</w>
s ors</w>
s ally</w>
phan ed</w>
p ill</w>
new sletter</w>
loc king</w>
ex tra
erg ate</w>
diver se</w>
de vi
correc tion</w>
civili ans</w>
c el</w>
awa reness</w>
ash y</w>
arch itec
War ning</w>
SJW s</w>
S ign</w>
Re co
M oun
Li brary</w>
In stitute</w>
Fu ture</w>
F la
E ach</w>
CUNT CUNT
C ou
C at</w>
A way</w>
wing_ heart</w>
v ous</w>
th ly</w>
ten ed</w>
t ness</w>
skin ned</w>
sk ep
re publican</w>
observ ation</w>
ne c
mp tions</w>
in strum
h int</w>
gro wing_heart</w>
figh ts</w>
en der</w>
educ ational</w>
clean ed</w>
b ans</w>
ar ty_popper</w>
activi sts</w>
We b</w>
Te ch</w>
P ra
L au
A H
# lo
vo id</w>
v ard</w>
tren d</w>
she ep</w>
regi ons</w>
psycho logy</w>
pha se</w>
par ano
og a</w>
ne gro
middle_f inger</w>
ma ster
influ enced</w>
four th</w>
fab ric
et ro
end ers</w>
deci des</w>
d in</w>
consist ently</w>
c key</w>
ay e</w>
ari ties</w>
arg on</w>
ap pointed</w>
am end
al ter</w>
Y up</w>
S K
R ou
Braz il</w>
Anti fa</w>
10 1</w>
#B an
# follow
ve ter
ve get
ugh ty</w>
tt om
sy nony
rever sion</w>
prote sts</w>
promo tes</w>
progra mming</w>
over ly</w>
o on</w>
mm a</w>
ma tions</w>
li p
k no</w>
id en</w>
hh hh</w>
fu el</w>
frustr ated</w>
figh ters</w>
exclus ive</w>
er ase</w>
en to
contr ast</w>
com edi
boo bs</w>
bi ke</w>
age ous</w>
We 'll</w>
Sh aria</w>
R ome</w>
Pla y
OO OO</w>
M un
L inks</w>
Ar chi
Alex ander</w>
A ye</w>
18 1</w>
1/ 2</w>
v or</w>
tic k</w>
the res</w>
t ant</w>
supremac ists</w>
stu bs</w>
sit e's</w>
remo tely</w>
re aching</w>
rais ed
no xious</w>
nar cis
n ur
n ist</w>
mis sion
m ou
m oo
licen sing</w>
j ap
inves ti
hi p</w>
hi o</w>
he a</w>
foo lish</w>
employe e</w>
dem ands</w>
de la
comprehen sive</w>
che ers</w>
bure auc
bo ards</w>
bigo try</w>
bet a</w>
Wor d</w>
S wi
Pic ture</w>
Jer usalem</w>
FOR M
Dri ve</w>
Bo ston</w>
BO DY</w>
un true</w>
th ug</w>
t ack
sch ool
res ist</w>
rele ases</w>
pol it
p ar</w>
men tality</w>
h u</w>
fr ag
ff ed</w>
exc uses</w>
eth ics</w>
drop down</w>
coug ar</w>
co herent</w>
ce ase</w>
busin esses</w>
ban g</w>
ak y</w>
a str
Z ion
R ay</w>
Mich igan</w>
Ma kes</w>
Jour nal</w>
Distr ict</w>
Bul garian</w>
# FFFF
ul ate</w>
tre es</w>
tho logy</w>
subsequ ent</w>
sc ar
raised _f
partici pants</w>
or ous</w>
mem ories</w>
loy d</w>
in tr
in cl
exper tise</w>
ev es</w>
crossed _f
civiliz ed</w>
an thro
al together</w>
agre ements</w>
US ELESS</w>
T ele
Sci enti
Sa ying</w>
S on
Ro se</w>
Lo s</w>
H il
Ger man
Bri an</w>
B ig
stri pping</w>
satis fac
reflec ts</w>
judg es</w>
ic ity</w>
fun ni
compar ing</w>
colli sion</w>
cal cul
bo o</w>
ag ent</w>
Who 's</w>
R AT
PI C</w>
Lou is</w>
L ight</w>
Koso vo</w>
H O</w>
F T</w>
# po
# O
z y
y i
un biased</w>
replac ing</w>
produc ing</w>
photo graphy</w>
p ist
oun ce</w>
o we</w>
j e</w>
it ment</w>
in ated</w>
import antly</w>
ev al</w>
doc tors</w>
cont entious</w>
che que
b day</w>
at ar</w>
ack er</w>
Vill age</w>
Vi ew</w>
St ory</w>
PO W
P sy
N ING</w>
Mor ning</w>
K ill</w>
ING S</w>
An on</w>
zz ie</w>
u el</w>
r ough</w>
o graphy</w>
le an</w>
in bred</w>
hun ting</w>
hom ie</w>
h ack</w>
gri mac
educ ate</w>
dam ned</w>
cont acted</w>
comp ly</w>
co ast</w>
ch et</w>
bathro om</w>
b ent</w>
applic able</w>
S em
NA Z
Moder n</w>
M es
M F</w>
Lo ve
L ine</w>
D I</w>
Ch ur
Ch in
Ch ange</w>
# fin
wor ries</w>
victory_ hand</w>
supre macy</w>
str ate
si c</w>
sex ism</w>
se lection</w>
s ke
regi onal</w>
re y</w>
prejudi ce</w>
pra ise</w>
over view</w>
o y</w>
mani pul
m ir</w>
in line</w>
gu l
gu est</w>
grimac ing_face</w>
fru it</w>
equ ipment</w>
en e</w>
emplo yment</w>
ch in
bran ch</w>
attr acted</w>
Virgin ia</w>
Th at
TO M
T able</w>
Jer sey</w>
Gu ar
F ra
F le
CO M
#inst ag
t d</w>
syn drome</w>
sco res</w>
s u</w>
ne ar
mon ster</w>
mi e</w>
k y
gen ders</w>
desp icable</w>
defe ated</w>
chr ist</w>
cam er
as hi
al ties</w>
a .
Th ought</w>
TR ASH</w>
Syri an</w>
Oreg on</w>
Ma ster</w>
Ch at</w>
Alban ian</w>
#FFFF FF</w>
trigg er</w>
th -
se arch
roll back</w>
red _flag</w>
rec ording</w>
pr us</w>
oo p</w>
gi an</w>
establish ment</w>
e_ sign</w>
duc k</w>
contin ually</w>
confi dent</w>
and ering</w>
W is
Scot tish</w>
N S
J .
F U</w>
Col in</w>
# orlando</w>
volunte er</w>
ur l</w>
u lation</w>
tun e</w>
t ang
str y</w>
ra pper</w>
r ally</w>
prec ise</w>
poli c
occas ionally</w>
is ol
inci dents</w>
cr acy</w>
cheque red_flag</w>
answ ering</w>
admin ship</w>
ad dic
M om
HAHA HA
G un
Ed itor</w>
Dav is</w>
Consi dering</w>
As syri
A W
w olf</w>
testi mony</w>
spe cul
sin cerely</w>
si x
see -no-evil_monkey</w>
scre w</w>
retur ns</w>
reli ability</w>
ref using</w>
pro xy</w>
oppon ents</w>
na ils</w>
mon day</w>
le ep</w>
in herently</w>
g f</w>
fair s</w>
enter tainment</w>
end less</w>
elimin ate</w>
dri vers</w>
daugh ters</w>
cr ush</w>
choo sing</w>
che cks</w>
bol locks</w>
asser tions</w>
_of_ the_
W ere</w>
Gre at
E -
CHE ESE</w>
B IR
# we
wikipedi ans</w>
un usual</w>
stu died</w>
sl ander</w>
ris ing</w>
ref uses</w>
ques tioning</w>
privileg es</w>
pre par
p y
no v
institu tions</w>
homo sexuals</w>
f rac
evid ent</w>
compre h
collap se</w>
class ical</w>
cl oud</w>
c ure</w>
bo s</w>
ber ry</w>
be an</w>
ate -
appe aring</w>
Y TM
YTM ND</w>
P y
O re
N PA</w>
M other</w>
Ed ward</w>
D a</w>
B ac
33 33
# happiness</w>
# cunt</w>
wrest ling</w>
up dating</w>
re ven
re act</w>
ple ased</w>
particip ating</w>
or a</w>
neutr al
n ity</w>
k ingdom</w>
gra pher</w>
go ds</w>
clu b
br ut
bi lities</w>
b are</w>
b acking</w>
awk ward</w>
ap es</w>
al um
W ild</w>
St one</w>
O L
H it
Gr and
Elizabe th</w>
Conserv ative</w>
Con grats</w>
Ca uc
C RA
B RO
well- known</w>
trade _mark</w>
soci eties</w>
sc r
re publicans</w>
po sters</w>
li cker</w>
le agues</w>
l as</w>
he ck</w>
do w
cun t
com e
centr ic</w>
bud get</w>
bom bing</w>
be ast</w>
air plane</w>
YO NE</w>
Vi ds</w>
T un
St art</w>
Proble m</w>
Phy s
G B</w>
Francis co</w>
Eng ine
D omin
A in
# J
y ri
wis dom</w>
vis ited</w>
univer sally</w>
th u
tal ent</w>
t ario</w>
soc cer</w>
s_ on_
pl z</w>
oph iles</w>
deli vered</w>
compati ble</w>
commun ists</w>
car ing</w>
bl in</w>
be g</w>
V IDE
L ake</w>
Kur ds</w>
J r</w>
Ed itors</w>
B ob
Any thing</w>
/ 7</w>
# gi
tempor arily</w>
shi thole</w>
liber ty</w>
h in
god damn</w>
fla wed</w>
di agno
d ency</w>
concer t</w>
comm ons</w>
assu mptions</w>
assi on
anniver sary</w>
Sp am</w>
S ave</w>
S H</w>
Pe ter
M T</w>
M L
Har ris</w>
F our</w>
Con cer
Cana dians</w>
C S</w>
Bud dh
ADMIN S</w>
A in</w>
# 000</w>
wa ves</w>
vis iting</w>
tr um
tr ann
ta to</w>
sy ste
pres entation</w>
photo graph</w>
ma xim
inter action</w>
ha d
et y
err one
e sts</w>
decl are</w>
conduc ted</w>
cal end
ar y
any Vids</w>
alter nate</w>
ag le</w>
T F</w>
Sha me</w>
S ab
Li ke
La dies</w>
Ex cell
EL AND</w>
DO ES</w>
D al
Be at
199 5</w>
#M anyVids</w>
# friday</w>
t l</w>
sympa thy</w>
resul ted</w>
rema ined</w>
pres ents</w>
pre su
pati ents</w>
in surance</w>
i ority</w>
hous ing</w>
horr or</w>
gi e
fre aking</w>
f oul</w>
en de
ch est</w>
bur ned</w>
bo w
be ll
afr ican</w>
TWAT'TWAT' TWAT'TWAT'
Sim il
Rac ist</w>
LLO CKS</w>
I ES</w>
G row</w>
Cap tain</w>
C amer
BO LLOCKS</w>
y y</w>
wet back</w>
un comfortable</w>
twi sted</w>
titu des</w>
thir sty</w>
sy l
surr ounding</w>
sil ent</w>
ser vers</w>
se perate</w>
sca m</w>
recomm ended</w>
phys ic
phenomen on</w>
persist ent</w>
overwhel ming</w>
outr age</w>
na vig
mouth _face</w>
mo vements</w>
lin s</w>
gradu ate</w>
go s</w>
folded_hands_ medium-dark_skin_tone</w>
e lev
e ar</w>
dem ic</w>
compu ters</w>
circumc ision</w>
anno yed</w>
U K
Pr o</w>
IT Y
FA CK</w>
Bo sn
Bio graphies</w>
B is
Arth ur</w>
# v
st in
spac es</w>
sign al</w>
r ush</w>
ob served</w>
log s</w>
lo vers</w>
li bel</w>
k 's</w>
gener ic</w>
coun ted</w>
co des</w>
chur ches</w>
bann er</w>
We ek</w>
Sy n
Sp ir
S ong</w>
R ap
Pus sy</w>
M ach
Liter ally</w>
L am
I AN</w>
Ed its</w>
ES S
Do c</w>
Ac c
u ed</w>
t land</w>
symbol s_on_
symbols_on_ mouth</w>
say in</w>
resi dents</w>
real ised</w>
raising_ hands</w>
qu anti
pen alty</w>
par alle
over -
n ever
mother fucker</w>
mo tives</w>
mo thers</w>
is s
ic ip
i 'd</w>
heter o
haras sed</w>
gras p</w>
fu ge
face_with_ symbols_on_mouth</w>
el a</w>
de fam
cle arer</w>
centr e</w>
appropri ately</w>
an arch
af t</w>
Val ent
TOM MY</w>
Stra ight</w>
Se an</w>
Pho to</w>
Or ange</w>
Net work</w>
Marx ist</w>
H ispanic</w>
Angel es</w>
ARTIC LE</w>
199 7</w>
# th
# li
# can
val idity</w>
su ed</w>
stra w</w>
st am
ssi bly</w>
si m
rac e
pro posing</w>
pre d
play list</w>
pe do</w>
ob s</w>
need ing</w>
mo d</w>
mar ch</w>
il a</w>
ign ed</w>
hypo thesis</w>
fun d</w>
f ish
every time</w>
d ope</w>
constitu tional</w>
co at</w>
cell s</w>
blo wing</w>
be ard</w>
b n
b b</w>
attr act</w>
agg er
ab sence</w>
T LY</w>
St an
Spr ing</w>
R ab
R Y</w>
HAPP Y</w>
Ca st
#K AG</w>
t ends</w>
slo ppy</w>
sh er</w>
sched ule</w>
research ers</w>
pro pri
presi dential</w>
pe tition</w>
mo d
lo t
li ance</w>
inten tional</w>
ha sh
fe eding</w>
en ligh
di plom
de sh</w>
co operation</w>
be ats</w>
Tom my</w>
TRUM P</w>
S pre
Pho to
HOM ELAND</w>
Gu ys</w>
D ay
Cur rent</w>
BY E</w>
AN NO
= D</w>
199 3</w>
um my</w>
the w</w>
suffe red</w>
s no
ques tioned</w>
quali fies</w>
ob noxious</w>
ligh ted</w>
journ als</w>
every one's</w>
comm and</w>
by -
al ia</w>
Wil son</w>
U s</w>
Tri al</w>
Tit le</w>
Sin cerely</w>
P ash
O ba
Lis a</w>
I G</w>
A wards</w>
2 ,
#s issy</w>
y elling</w>
would nt</w>
was hing</w>
ver sus</w>
univer sal</w>
t ch</w>
sh out</w>
sa tions</w>
pre cious</w>
nomin ations</w>
mo tor
man_shrugging_ medium-dark_skin_tone</w>
lic it</w>
ing ham</w>
il le</w>
hop es</w>
h s</w>
gang s</w>
exp anding</w>
dro ps</w>
distingu ish</w>
disc over</w>
descrip tions</w>
de y</w>
conven ient</w>
conven i
connec tions</w>
bas sad
TH RE
SECUR ITY
SECURITY FUCK</w>
M ig
LMFA O</w>
J U
Doc tor</w>
D e</w>
CH O
Br ing</w>
# go
th_ hands_
th_hands_ in_
th_hands_in_ celebration</w>
sympa th
sign _of_the_
s oul
raising_ bo
raising_bo th_hands_in_celebration</w>
poli sh</w>
pas sion</w>
or ing_
oring_ food</w>
nic cas</w>
lin ed</w>
j unk</w>
im mature</w>
il ers</w>
face_sav oring_food</w>
f t
ex tin
eval u
est ate</w>
egg s</w>
de v</w>
co war
censor ing</w>
cat_with_ tears_of_joy</w>
ca red</w>
bo dy's</w>
ak in</w>
U U</w>
So ck</w>
S ide</w>
Recor ds</w>
Phi lipp
PER SON</w>
Femin azi</w>
English -
Dele te</w>
Cy prus</w>
Cor n
B illy</w>
A z
8 th</w>
wor n</w>
vi bes</w>
ser t</w>
nic ely</w>
mon itor</w>
lo cations</w>
gu ese</w>
for bi
ed ay</w>
dro oling_face</w>
divi ded</w>
dir t</w>
d ump</w>
by tes</w>
bi le</w>
as k
a ug
S UR
Re mo
Re g
Lo ts</w>
G M</w>
E at</w>
D ur
D ig
D anny</w>
CUNT BAG</w>
weas el</w>
uc ker</w>
toi let</w>
the irs</w>
th 's</w>
suc ked</w>
soci ally</w>
seem ingly</w>
scre wed</w>
scen es</w>
r ig
po cket</w>
pl ug</w>
me al</w>
la p</w>
la b</w>
inten ance</w>
ing ers</w>
ig a
gra ve</w>
fran ch
distur bing</w>
de cor
clo thing</w>
brief ly</w>
bas ement</w>
b int</w>
The ory</w>
Sh are</w>
Mul ti
Mic hel
E qu
Dev elo
Da esh</w>
D ir
CUN TS</w>
Amaz ing</w>
Aga inst</w>
199 1</w>
#instag ood</w>
# WW
ww w</w>
un doing</w>
ti red
tan e
sen sible</w>
rever sions</w>
perc eption</w>
multi -
man n</w>
mal e_sign</w>
law suit</w>
key board</w>
inger s_
hum ble</w>
ex emp
emo tionally</w>
em a</w>
elimin ated</w>
des per
defin es</w>
crossed_f ingers_
comb at</w>
ca ps</w>
brown ies</w>
broad cast</w>
bl ast</w>
appro xim
ann e</w>
Vir gin</w>
THE IR</w>
OM IT</w>
OK_ hand</w>
M rs</w>
For get</w>
FIR ST</w>
E M
B ell</w>
3 /
veri fication</w>
v on</w>
ton 's</w>
sleep y_face</w>
si zed</w>
sa uce</w>
res ort</w>
re sem
n ights</w>
laugh ed</w>
la me
l g
jum ping</w>
in capable</w>
health care</w>
extrem ist</w>
et ers</w>
encyclopa edia</w>
develo ping</w>
ci a</w>
cap tured</w>
bor ro
avo iding</w>
am using</w>
aci fic</w>
WAT CH</w>
W ater</w>
Th ough
Ser bs</w>
S ales</w>
PO ST</w>
N at
IM D
I ll
H op
GO ING</w>
F ly
Cer tainly</w>
B S
unci ation</w>
tradi tions</w>
t u</w>
stop s</w>
sp ite</w>
shor ter</w>
s lu
russi an</w>
pur sue</w>
per su
particip ated</w>
p en</w>
off end</w>
neutral _face</w>
mo re
mend ment</w>
li ft</w>
le gen
interpre t</w>
harm ful</w>
gu ided</w>
excep tions</w>
en velo
defin ing</w>
de voted</w>
could n</w>
ch ina</w>
ch i</w>
bri ties</w>
b uck
athe ist</w>
arbitr ary</w>
advis ed</w>
Y all</w>
W ave</w>
UN D</w>
Re ference</w>
Prin cess</w>
M ed
B lan
ANY THING</w>
AL WAYS</w>
2 30</w>
tion ist</w>
ti fy</w>
revis ions</w>
pu r</w>
par king</w>
op pression</w>
j ac
inval id</w>
int oler
inde x</w>
i di
explic it</w>
e u</w>
democr at</w>
concer n
compreh end</w>
cam pus</w>
birth da
bio logy</w>
ar ab
ann ed</w>
a z
T C</w>
Semi tic</w>
P ic</w>
Mo vement</w>
Mi ami</w>
LE T</w>
Gu ide</w>
Go d's</w>
BRE A
univer sities</w>
star -
ren ame</w>
pri ority</w>
popu lations</w>
p ins</w>
or t
mu h</w>
malic ious</w>
jour ney</w>
isla m
ho pe
ha bit</w>
h r</w>
fundamen tally</w>
fun ds</w>
en _
cre ation
at ro
app lying</w>
aa a
W ind</w>
V OMIT</w>
Up date</w>
RI CK</w>
R C
Num ber</w>
NY C</w>
Ko dak</w>
Info box</w>
En ter
Chan nel</w>
1 50</w>
# re
win ter</w>
whe el</w>
ur us</w>
ty -
sal t</w>
s ane</w>
raised_ eyebrow</w>
quo tations</w>
pro vince</w>
pr ise</w>
po ll
ne cks</w>
m s
hi red</w>
gent le
ga ther</w>
face_with_ raised_eyebrow</w>
et ary</w>
def ended</w>
ch in</w>
ca tho
andro id</w>
a i
Viet nam</w>
S OR
Roman ian</w>
Ran dom</w>
N AS
Ma x</w>
Har vard</w>
Fa v</w>
E l</w>
Croati a</w>
Consi der</w>
Ci vility</w>
Any ways</w>
" If</w>
vill ages</w>
uni form</w>
tired _face</w>
techni que</w>
sk ill</w>
scand al</w>
ro ck
ro ads</w>
r us</w>
perpe tr
m ari
ke e</w>
goo fy</w>
gam ergate</w>
fes tival</w>
facep al
critic ize</w>
cre atures</w>
cou ples</w>
col lect</w>
col d_face</w>
coinci dence</w>
cli ent</w>
c uc
ba it</w>
YOU BOLLOCKS</w>
Per fect</w>
Pe op
Lmfa o</w>
L ES</w>
He a
E vi
Cri ticism</w>
199 6</w>
z o</w>
y_ cake</w>
writ ings</w>
toler ance</w>
tion -
thor ough</w>
se t
r r</w>
pre sumably</w>
lo ses</w>
life time</w>
it -
in ju
homin em</w>
f art.
fart. China</w>
ex posing</w>
edit or's</w>
econom ics</w>
cor n</w>
birthda y_cake</w>
bin ary</w>
be gging</w>
be d
any time</w>
adverti sement</w>
Ze aland</w>
Ye ars</w>
S li
Poli tical</w>
Poli cies</w>
O mg</w>
I an</w>
199 2</w>
#b lessed</w>
" So</w>
vil la
un il
suspic ion</w>
shor t
se -
r ug
pri ze</w>
port al</w>
out fit</w>
mis information</w>
j an</w>
in car
ha ven</w>
f old</w>
edit- warring</w>
destruc tive</w>
deb ates</w>
contin ent</w>
clu eless</w>
clo set</w>
cli p</w>
classi fied</w>
cir cles</w>
cha sing</w>
cat ching</w>
bi tion</w>
bel t</w>
bar bar
ba e</w>
a sts</w>
W P
U h</w>
S tation</w>
S mo
S ever
Ru n</w>
Nor th
K ind</w>
Fuck -
F IL
A my</w>
: 8</w>
7 6.1
tw ist</w>
tax pa
stic king</w>
spe l</w>
sm arter</w>
sho cking</w>
mag a</w>
leg acy</w>
le e
ju icy</w>
it ations</w>
imp lied</w>
i Phone</w>
gr ant</w>
fair y</w>
expres sion
ex agger
evol ved</w>
est er</w>
enth usi
do in</w>
dis order</w>
dem anding</w>
d ged</w>
cros sed</w>
black _
bi bli
ad h
Z ionist</w>
WR ONG</w>
Sign post</w>
S cor
Phi l</w>
E D
Don al
D is</w>
Cu z</w>
#Trump 2020</w>
wor shi
warri or</w>
ver pool</w>
ti tive</w>
succe ed</w>
sen ger</w>
ris h
right- wing</w>
revi ewer</w>
restric ted</w>
rest oring</w>
recogn ised</w>
re k</w>
po verty</w>
pe ts</w>
n ically</w>
moder ate</w>
he l</w>
hand _sign</w>
elabor ate</w>
di men
cop ying</w>
char ts</w>
boy co
bl r</w>
assaul ted</w>
alleg edly</w>
alleg ation</w>
W ish</w>
User _
T an
Re moving</w>
Qu it</w>
P ay
N atur
L e</w>
K ids</w>
I mp
Cur rently</w>
An n
An im
7 2.
y an
whe el
veg gie
veggie tales</w>
un aware</w>
symbol s</w>
p ir
oc ean</w>
narcis s
mom ma</w>
m asses</w>
laun ched</w>
inst agram</w>
ing o</w>
hal o</w>
gor geous</w>
expres sing</w>
dis respect</w>
di alogue</w>
concern Thanks</w>
at re</w>
ancestr y
am ond</w>
alter natives</w>
Red dit</w>
M ario</w>
M UCH</w>
L ow</w>
Da vi
DUM B</w>
Ci tiz
Child ren</w>
Ch all
C iting</w>
Aus tri
Angel ina</w>
Admin s</w>
Ad ding</w>
Aca demy</w>
199 4</w>
w ann
vol tage</w>
u ti
tw ats</w>
ted .
st ep
scholar ship</w>
s_ face</w>
re t</w>
prin ts</w>
popular ity</w>
ob li
m agaz
les s_face</w>
in correctly</w>
g h
fan cy</w>
expression less_face</w>
er ased</w>
cru el</w>
conver ted</w>
construc t</w>
S et</w>
PO S
M agazine</w>
IN FORM
Hind us</w>
Gol den</w>
E C
D ue</w>
Can cer</w>
CO U
Be ach</w>
B N
Ain 't</w>
: 15</w>
z u
ush ed</w>
privileg ed</w>
po sure</w>
p ity</w>
oper ations</w>
oooo oo</w>
nar row</w>
modif y</w>
jo int</w>
im pressive</w>
ey ed</w>
den tal</w>
da tions</w>
c ents</w>
at mo
WW II</w>
Vo te
T op
S oc
Re moved</w>
P ope</w>
P ark
M r
M C
KK K</w>
I de
Gamer Gate</w>
FA CT</w>
F ake</w>
Doc um
D om
BLA CK</w>
Au g</w>
# un
v i</w>
tor ture</w>
tig ht
syn thesis</w>
stu b
se less</w>
ru m</w>
re form</w>
random ly</w>
pu ppy</w>
po le</w>
par o
p ig
no ting</w>
nick name</w>
nam ent</w>
nam ely</w>
ma sters</w>
ins ight</w>
in ations</w>
high _
go v</w>
di ous</w>
demonstr ates</w>
deliber ate</w>
compli ance</w>
capit alism</w>
bo gus</w>
ban k
ar ches</w>
Wat ching</w>
Ug ly</w>
S end</w>
Per io
O UT
O B
Langu age</w>
Joh nny</w>
Fri ends</w>
F ac
Excell ent</w>
Com ing</w>
Carol ina</w>
Beau tiful</w>
Bat man</w>
BIT CH
Americ a
2 1st</w>
wi desp
vandal ise</w>
underst ands</w>
un reasonable</w>
tal s</w>
roll ed</w>
percen t
off- Jewish</w>
interpre tations</w>
d_ suit</w>
d ney</w>
d ges</w>
coo kie</w>
consi ders</w>
compla ined</w>
co vid</w>
char ity</w>
att ended</w>
ancestry Fuck-
amon d_suit</w>
TH INK</w>
T own</w>
So on</w>
Rob er
N C</w>
J W</w>
Idio t</w>
He art</w>
H and
Fil es</w>
F antas
D ING</w>
C us
An dy</w>
4 5
z om
wal ks</w>
view points</w>
vi an</w>
smiling_face_with_open_mouth_and_ smiling_eyes</w>
s is
real istic</w>
pos ses
may or</w>
lo ck
law yers</w>
l uc
kic king</w>
investi gations</w>
inf ring
enter ing</w>
em erg
compe te</w>
be aring</w>
au d
anxi ety</w>
ancestryFuck- off-Jewish</w>
an ian</w>
ambig u
affili ated</w>
academ ics</w>
ab t</w>
Un cle</w>
UN BLOCK</w>
UG H</w>
T ELL</w>
S outh
R M</w>
P s</w>
On tario</w>
NO T
Mess age</w>
Mc Donald</w>
I GHT</w>
Hun garian</w>
H ard</w>
F ight</w>
C ross</w>
C are</w>
BE RT</w>
AAAA AAAA
A th
0 ,000</w>
# pra
wrong ly</w>
wh is
up coming</w>
tor al</w>
toler ated</w>
tic a</w>
ti stic</w>
stom ach</w>
so il</w>
snowfla ke</w>
s ought</w>
r us
pus sy
promis es</w>
pre ferences</w>
pe er-
ow er</w>
mom s</w>
le y
ki c</w>
it als</w>
im pose</w>
ga f</w>
f ting</w>
envelo pe</w>
e ase</w>
di ction</w>
de fic
chee se
be e</w>
accep tance</w>
_s un
Se eing</w>
S EN
R oo
R U
Ph il
P le
P N</w>
O k
N ip
H in
F acts</w>
Cha pter</w>
widesp read</w>
vi ous</w>
un referenced</w>
ug e</w>
u no
tal i
spir itual</w>
sho ve</w>
sh y</w>
perpe tu
ol ds</w>
low -
lif ted</w>
k ing
identi fying</w>
gol den</w>
facepal ming</w>
de fa
chann els</w>
ca kes</w>
bo thering</w>
black _sun
black_sun _with_
black_sun_with_ rays</w>
backhand_index_pointing_ down</w>
at uring</w>
all as</w>
act ress</w>
V ED</w>
U R</w>
R ape</w>
Palestin ians</w>
N BA</w>
Man chester</w>
In clu
H IV</w>
E li
An dro
: 20</w>
# trump</w>
w alls</w>
view ing</w>
ur o</w>
tran sm
tran sc
tra its</w>
st es</w>
rup t</w>
ro b</w>
repor ter</w>
po is
pa ki</w>
p c</w>
ol dest</w>
na tively</w>
money -
m l</w>
ii ii
hypo the
hor ses</w>
ge ar</w>
egg plant</w>
distribu tion</w>
con ce
clow n
bur ger</w>
be er_
an n</w>
X box</w>
VIDE O</w>
Tra iler</w>
Rep or
R IP</w>
P acific</w>
Mex icans</w>
LO T</w>
LL LL
I A</w>
Hawa ii</w>
Fran k
F D</w>
D ate</w>
Chri stop
C ab
C -
Bus ty</w>
Beli eve</w>
A wa
A ction</w>
vandal ised</w>
transp arent</w>
tom s</w>
revol ving_
replac eable</w>
ren aming</w>
photograph s</w>
per tin
ner vous</w>
inf il
her o
he els</w>
ge able</w>
crack er</w>
ca m</w>
brow ser</w>
at om
as sem
an tic
amate ur</w>
W as
V s</w>
S it
Le o</w>
L ESS</w>
In don
IC S</w>
An glo
19 45</w>
# ma
# am
" When</w>
web site's</w>
tra itors</w>
tr acks</w>
stu me</w>
sm ack</w>
scen ario</w>
resul ting</w>
restric tions</w>
pr ices</w>
ner d</w>
kno cked</w>
jo e</w>
ir l</w>
inci vility</w>
in duc
ill iterate</w>
home work</w>
gi ous</w>
format ted</w>
fin ed</w>
fe wer</w>
er i
d ale</w>
consci ous</w>
buff alo</w>
be gun</w>
authorit ative</w>
announ ce</w>
V A</w>
Terr or
T RI
SP AN
R ules</w>
Pakistan i</w>
O ttom
O li
O hio</w>
MS M</w>
I ve</w>
En ergy</w>
Ea ster</w>
C ow
C ele
BO B</w>
B eng
B ad
tro phy</w>
trans lations</w>
sub ver
sty les</w>
ro cket</w>
righ teous</w>
p im
out dated</w>
og atory</w>
occas ions</w>
mon it
mer ger</w>
meas ures</w>
m ile</w>
kid na
je w
it 'd</w>
investig ate</w>
inv aders</w>
in complete</w>
i q</w>
h ing
gen es</w>
f lower</w>
exha us
ex tend</w>
enti c</w>
deb ating</w>
collabor ation</w>
ce re
b ills</w>
b f</w>
as y</w>
ar l</w>
appro ve</w>
ann on</w>
ang el</w>
ac le</w>
W y
V ING</w>
Sat an</w>
Sa id</w>
S now
Respon se</w>
R ay
Poli tics</w>
P ed
Lin col
Li ve
Indon es
F av
Com pu
An cient</w>
# Trump</w>
" I'm</w>
wi der</w>
ve gan</w>
trans fer</w>
ton gu
thumbs_up _sign</w>
ther lands</w>
temp t</w>
star- struck</w>
sla pped</w>
sk et
sh irts</w>
ric ane</w>
r hy
pu zz
process es</w>
per or</w>
per ial</w>
pag e's</w>
ous y</w>
mess ing</w>
m ut
low est</w>
la ke</w>
hum ili
goo g
fasc ism</w>
ex tr
dif fer</w>
deep er</w>
d ad
convin cing</w>
comp on
cl ing</w>
cl in
c kets</w>
ap artment</w>
Wiki -
W T</w>
W OM
V P</w>
Tr um
Sum mer</w>
S adly</w>
ON AL</w>
Maj or</w>
M att
K atie</w>
Is lands</w>
INFORM ATION</w>
G RO
Def ense</w>
Cra zy</w>
Con tent</w>
CE O</w>
Be ar</w>
An der
AL IST
A mendment</w>
# ri
# Walk
to es</w>
ti quette</w>
t "</w>
subscri be</w>
secu lar</w>
po le
no ise</w>
me ga</w>
mar x
introduc ing</w>
hy pe</w>
func tions</w>
es sed</w>
ed e</w>
dat abase</w>
bo xing</w>
amend ment</w>
ak i</w>
ac com
UR L</w>
Sc out</w>
ST S</w>
S av
Po s
PO S</w>
OR Y</w>
N BC</w>
G Y</w>
E h</w>
Cont act</w>
Bu ild</w>
Bu il
AT ED</w>
2 16
- of-
wh ite
vul ner
voc al</w>
th ugs</w>
sub tle</w>
sm ash</w>
sing les</w>
s k</w>
re ment</w>
pur chase</w>
pronoun ced</w>
pr ic
ol ly</w>
n ab
in son</w>
h m</w>
go ssi
execu ted</w>
domin ant</w>
diffic ulty</w>
cred ited</w>
cre te</w>
conveni ence</w>
celebr ity</w>
blo w
ak ers</w>
Sci ento
S C</w>
Ro y</w>
Pa ul
O pen
Fa ther</w>
Com mon
B ut
B tw</w>
AR Y</w>
: -)</w>
8 00</w>
198 9</w>
where ver</w>
ur t</w>
uni ties</w>
suffic iently</w>
shoul der</w>
se ats</w>
s wee
revolving_ hearts</w>
proced ures</w>
op er</w>
neighb our
lic ks</w>
keep er</w>
ke 's</w>
in ating</w>
ic on</w>
hor n
ho ckey</w>
happ ily</w>
good ness</w>
fri ed</w>
fl ag
et ly</w>
er son</w>
dom s</w>
divi de</w>
de pression</w>
de lan
copy vio</w>
ci sts</w>
ci le</w>
ch ers</w>
cele brities</w>
c andy</w>
anal ogy</w>
an di
Wel sh</w>
W in</w>
U sers</w>
Sk y
Sever al</w>
S AL
Mal ay
Je re
Ham as</w>
HAHAHAHAHAHAHAHA HAHAHAHAHAHAHAHA
An i
" It's</w>
y l</w>
win ners</w>
w ic
tr ay</w>
tho t</w>
tar gets</w>
survi ved</w>
sanc tions</w>
s que
re consider</w>
prin cess</w>
pi pe</w>
nause at
m illen
lab our</w>
la yout</w>
im be
illustr ate</w>
hug g
hon ey</w>
haha haha</w>
e tr
desi r
demo graphic</w>
child hood</w>
cas u
carto on</w>
be tra
after wards</w>
acces sible</w>
Z o
WT C</w>
WOR LD</w>
S ugg
RO BERT</w>
Pa thetic</w>
N or</w>
N HR
Ira q
H ILL
Di f
Colum bia</w>
Brit ann
Bre xit</w>
AT T
( :</w>
# Islam</w>
third- party</w>
stret ch</w>
st res
sp are</w>
sl ur</w>
reven ge</w>
prohi bited</w>
nauseat ed_face</w>
na ughty</w>
n es</w>
mul ticul
moun tain</w>
ma x</w>
ma intenance</w>
il y
il legally</w>
grad ing</w>
dismis sed</w>
der ogatory</w>
champ ion</w>
cas ual</w>
bur ied</w>
air port</w>
accompli shed</w>
_ light_skin_tone</w>
Wom en's</w>
S AG
NHR HS</w>
M art
Lar ry</w>
K h
Gu ide
G ary</w>
Ex tre
Ep iso
Cre ation</w>
Cor ps</w>
Catho lics</w>
: 10</w>
2 12
#St op
uc ci</w>
tight ly-
tightly- closed_eyes</w>
tac tic</w>
sub s</w>
stan ts</w>
span ish</w>
ran king</w>
pa ed
organ is
or ation</w>
note worthy</w>
n ine</w>
moun tains</w>
mo logy</w>
mechan ism</w>
me y</w>
m 's</w>
k em
infil tr
incorpor ated</w>
in stitution</w>
hur ting</w>
gov t</w>
fe red</w>
es tival</w>
dup licate</w>
dri ves</w>
def ence</w>
cast le</w>
br it
as simil
advoc ating</w>
Sh ouldn't</w>
Se a</w>
Oba ma's</w>
Mat ter</w>
K al
Brad bury</w>
B LI
@user .
24 /7</w>
10 .
# Yankees</w>
# Y
teab agg
tal e</w>
su ing</w>
stri p</w>
st or</w>
st on
squint ing_face_with_tongue</w>
scum bag</w>
prec eding</w>
or -
ony m</w>
off s</w>
o s
lu x
l ad
k is</w>
is i
inc ere</w>
in her
iga ret
i ley</w>
hor se
fro zen</w>
fi le
f ate</w>
ep ic</w>
electr ic</w>
dres sing</w>
di p
de cre
critic ized</w>
confir ms</w>
character istics</w>
bit ching</w>
att orney</w>
an ch
ab str
Though ts</w>
TH ESE</w>
Religi on</w>
RE S</w>
M P</w>
Leban on</w>
L on
Gre g</w>
Fin ding</w>
Fil m</w>
F ro
F ood</w>
Br uce</w>
An ton
Ad ded</w>
A gree</w>
198 4</w>
#mk r
#B lame
w _
vic tim
tw o-
transi tion</w>
slan g</w>
po lls</w>
out lets</w>
mar kets</w>
lingu istic</w>
labe ls</w>
h all</w>
ful l-
fo x</w>
fair ness</w>
en counter</w>
ef ully</w>
dynam ic</w>
cr icket</w>
con str
bu mp
blo s
batt le
aim ed</w>
adap t</w>
ad jus
SPAN ISH</w>
Pe te</w>
Ma x
Lew is</w>
L and</w>
CAN T</w>
24 .
we igh
t att
sh ite</w>
sand wich</w>
ro cks</w>
p om
on ey</w>
na ive</w>
n at
m are</w>
la im
ili an</w>
horri bly</w>
head ings</w>
ha mmer</w>
h illary</w>
fi able</w>
enti als</w>
ee e</w>
cl er
al ised</w>
You tube</w>
War ren</w>
U su
Ti ps</w>
Th ir
Sil ver</w>
SA ME</w>
S ti
Reque sted</w>
O ce
N am
Li verpool</w>
Lab our</w>
L ad
I E</w>
Hou ston</w>
G -
Fuck in</w>
FIR E</w>
F lag</w>
F ace</w>
Christop her</w>
7 1.
00 ,000</w>
# co
wee zer</w>
we igh</w>
ul ed</w>
to y</w>
t .
solu tions</w>
sco red</w>
pro phe
prac tically</w>
po d
pain ful</w>
pa ys</w>
nigg uh</w>
mar tial</w>
leng thy</w>
le af
j ay</w>
ic e
i ency</w>
hand ling</w>
funni est</w>
fuckfuck fuckfuck
frustr ating</w>
form ing</w>
emer gency</w>
eas ed</w>
delan oy</w>
cred its</w>
cont acting</w>
conclu de</w>
clari fied</w>
cell spacing</w>
celebr ating</w>
can cell
calend ar</w>
c c</w>
at titudes</w>
assi c</w>
Ro ger</w>
Ro b</w>
F OO
Cel tic</w>
C ris
: 14</w>
#G ab
# Vote
x en
wit ter
tren ding</w>
sur name</w>
si ves</w>
si al</w>
sh ush
sav age</w>
sarcas tic</w>
ri x</w>
re less</w>
pl er</w>
out line</w>
or g
lan e</w>
l i</w>
hugg ing_face</w>
her oes</w>
fre sh
fal si
dis regard</w>
dele ted.
bu bble</w>
ann ual</w>
adm itting</w>
Y ours</w>
Y or
VI L</w>
S F</w>
Reco gn
R D</w>
I Z
HA D</w>
GN U</w>
FI RED</w>
Dou ble</w>
Co de</w>
Champ ionship</w>
Ch ild</w>
CEN TR
C z
Bul g
BUS H</w>
B ap
B LE</w>
Al aska</w>
Al an</w>
Al -
A THE
:4 5</w>
# peace</w>
" My</w>
white_ smiling_face</w>
v v
tiz ed</w>
sna p
shush ing_face</w>
revis ed</w>
restaur ants</w>
research ed</w>
remin ded</w>
pseu do
pro lly</w>
point ment</w>
mu ted</w>
list ened</w>
leg es</w>
la y
k r
inju red</w>
inev itable</w>
gg y</w>
f ers</w>
el le</w>
de ported</w>
cl arity</w>
bis exual</w>
ban ks</w>
b ath</w>
as on
ale ct</w>
al g
UN G</w>
U r</w>
U LL
T aking</w>
Stal in</w>
Sing h</w>
Ses sions</w>
RE D
Portu guese</w>
N T</w>
Ma c</w>
Ha haha</w>
Che ck
C o</w>
A ID
:0 3</w>
un d</w>
tan ks</w>
ta b</w>
stic ks</w>
ser ial</w>
sam ple</w>
rat ings</w>
pat ent</w>
pass word</w>
pa sted</w>
o is</w>
mis understood</w>
magaz ines</w>
los ses</w>
li sm</w>
hand_ medium_skin_tone</w>
gre ek</w>
gen res</w>
func tional</w>
femin ine</w>
exclu de</w>
bl ings</w>
be st
YOU '
Ro ss</w>
Re cent</w>
N AT
H it</w>
FAC TS</w>
Con sen
Comm on</w>
CI VIL</w>
CAN 'T</w>
BIR TH
B -
Are a</w>
AN KS</w>
A INT</w>
:3 5</w>
#Blame One
w re
ty r
to s
tend ency</w>
te es</w>
s op
s aturday</w>
ren 's</w>
re mark
pur ple</w>
por tions</w>
plagiar ism</w>
pe e</w>
par tly</w>
ori entation</w>
occur s</w>
mann ers</w>
m ly</w>
liqu or</w>
li ble</w>
lec ture</w>
infin ite</w>
gener ated</w>
expec tations</w>
exc e
em en</w>
descend ants</w>
d ing
consider able</w>
con tested</w>
collec tive</w>
check _mark</w>
che ated</w>
ch ro
W ouldn't</w>
Nigg ers</w>
Mur der</w>
Mer ge</w>
K or
H ay
H P</w>
Fran kly</w>
B order</w>
#BlameOne Not
# healing</w>
war d
surr ounded</w>
sh ops</w>
selec tive</w>
s ounding</w>
r ased</w>
progra mmed</w>
pre ne
p re</w>
or i</w>
neighb ors</w>
ly n</w>
ly n
load ing</w>
lo id</w>
knowled geable</w>
kar ma</w>
indic ating</w>
ha w
ge on</w>
encour aging</w>
e .
dun no</w>
deleted. this</w>
deci ding</w>
cous ins</w>
bo b</w>
as i
arri ve</w>
accomp lish</w>
a tics</w>
ULL MANN</w>
Th em
Si x</w>
SAG ET</w>
S af
RE AD</w>
Net flix</w>
Mon go
K ED</w>
J. delanoy</w>
Intel ligence</w>
Fol lowing</w>
EE T</w>
Di vision</w>
Cor por
C lar
Bro wn
BA D</w>
3 6
198 8</w>
1. 5</w>
1 ,000</w>
# motivation</w>
# fashion</w>
w ol
vo ter</w>
vo ices</w>
territ ories</w>
temper ature</w>
substanti ated</w>
st ones</w>
re vo
r oughly</w>
non- notable</w>
no tor
mm mm</w>
main tained</w>
ing en
im s</w>
ide ological</w>
hu g</w>
holi days</w>
global ist</w>
enter taining</w>
disgus ted</w>
di gging</w>
desc ending</w>
d f</w>
crack ers</w>
contain ing</w>
con gratulations</w>
comfor t</w>
cho ke</w>
bu tter</w>
bo ar
announ cement</w>
al t-
W OULD</w>
Re ady</w>
Pre mi
Me et</w>
MA DE</w>
K id</w>
Ex ecu
E ven
Com mission</w>
Be at</w>
Bar ack</w>
BE ING</w>
Arab ia</w>
An na</w>
198 0</w>
w ned</w>
trag edy</w>
temp le</w>
ri sts</w>
remo ves</w>
re at</w>
po tato</w>
ori th
ony mous</w>
obses sion</w>
o ks</w>
n ite</w>
mach ines</w>
lun atic</w>
it er</w>
incre as
in os</w>
h y</w>
foot notes</w>
foo l
ex posure</w>
er d</w>
enc er</w>
edi c</w>
differen ti
cur se</w>
cam el</w>
ba i</w>
atmo sphere</w>
al thy</w>
a warded</w>
Wor king</w>
V in
Sm h</w>
O L</w>
De ep</w>
De al</w>
C ar</w>
ATHE IST</w>
198 6</w>
# girl</w>
youn g
w ore</w>
v als</w>
twee ted</w>
sub section</w>
stur ing_
shit Fuck</w>
sat ell
ret wee
pre v
off ence</w>
ne ck
mar gin
main taining</w>
lu v</w>
lin k
laug hable</w>
imple ment</w>
ge sturing_
exc iting</w>
encoun tered</w>
di visions</w>
di alect</w>
coo kies</w>
con grats</w>
bur gh</w>
be c</w>
arrog ance</w>
al y
al 's</w>
ac ious</w>
W A</w>
TH ATS</w>
Rob inson</w>
Re c
Re ading</w>
Pic tures</w>
Pat rick</w>
POW ER</w>
Nor way</w>
M inn
El li
E E</w>
Bud d
AB LE</w>
: 16</w>
un founded</w>
tri eved</w>
supp ress</w>
sug ar</w>
should n</w>
sett lement</w>
retur ning</w>
pl astic</w>
ph y
od ds</w>
mur ders</w>
mor onic</w>
mar rying</w>
le_ of_
in consistent</w>
hand ful</w>
expi red</w>
exist ent</w>
discus ses</w>
d m</w>
comm itting</w>
co stume</w>
co l</w>
co al</w>
cha os</w>
ar ation</w>
UT E</w>
U m</w>
Sus an</w>
R ock
Pop pins</w>
OOOOOOOO OOOOOOOO
N aming</w>
Li ving</w>
H oo
Dic tionary</w>
BIL LY</w>
:5 5</w>
#BlameOneNot All</w>
# team
ty po</w>
tr ump
tig ation</w>
th ood</w>
ten e
ta ils</w>
t ings</w>
sor ted</w>
sign_of_the_ horn
sign_of_the_horn s_
sh a</w>
see kers</w>
s wing</w>
s ack</w>
reve als</w>
rec eption</w>
re mem
propos als</w>
pre sume</w>
pr ou
pic k
pertin ent</w>
no pe</w>
ne o
mon sters</w>
mathema tical</w>
l abor
inter f
inten do</w>
indi ans</w>
ho sting</w>
ho bby</w>
he li
hair cut</w>
ha vent</w>
h r
gr ass</w>
f theday</w>
experim ents</w>
er to</w>
el er
d ust</w>
conver sations</w>
cl ou
bom b
bo wl</w>
bi z
as signed</w>
ar ab</w>
ann i
an tum</w>
ab ama</w>
TH AN</w>
Swi ft</w>
ST R
S ri</w>
Repe at</w>
Qu ite</w>
Pro of</w>
Op in
Dir ty</w>
B and</w>
:3 4</w>
: 19</w>
24 .1
#W restle
#8 230</w>
# fe
# Not
y land</w>
x a
wann abe</w>
tor 's</w>
ti ans</w>
techni ques</w>
syst em
sol o</w>
should 've</w>
pris on
preser ve</w>
par am
ol s</w>
observ ations</w>
mus eum</w>
mor als</w>
legis lation</w>
l ity</w>
ir onically</w>
inst antly</w>
il and</w>
htt p</w>
grand father</w>
floo d</w>
counter -
conc eption</w>
bud dies</w>
boom er</w>
ble w</w>
autom ated</w>
al ong
ag encies</w>
ad or</w>
a pe
Wiki Projec
Univer se</w>
T D</w>
Sh ort</w>
P P</w>
New sletter</w>
Lincol n</w>
L C</w>
Kenne dy</w>
IM HO</w>
Ex per
E vil</w>
Des ign</w>
CENTR ALIST
CENTRALIST STUPID</w>
Admin ist
:3 3</w>
6 9.1
# sun</w>
# bo
y ay</w>
woman 's</w>
wit nesses</w>
wh ist
van ia</w>
u to</w>
t as</w>
simil arly</w>
recogn ise</w>
raised_f ist
por ting</w>
pe ak</w>
or um</w>
n g
mu tual</w>
ll ll
ir on</w>
ha h</w>
gg ed</w>
fin dings</w>
effic ient</w>
e_ car
discre dit</w>
der ly</w>
controversi es</w>
conc ei
c ucks</w>
assion ate</w>
ab ul
_ light</w>
Who ever</w>
Tai wan</w>
Spe aking</w>
S witch</w>
S illy</w>
S V
RE ST</w>
Pr oud</w>
Michel le</w>
Ma il</w>
Li z</w>
Lat ina</w>
LG BT
I sa
Fa ith</w>
Br and
BIRTH DAY</w>
Ar yan</w>
Al len</w>
: 40</w>
4 chan</w>
#B re
woo ds</w>
ul ated</w>
t down</w>
su es</w>
smiling_face_with_ halo</w>
senti ment</w>
sen s
rec tion</w>
re post</w>
pi ano</w>
parti ally</w>
outr ageous</w>
nation alistic</w>
mother 's</w>
les ser</w>
le_of_ poo</w>
k it</w>
k ening</w>
it ter</w>
im posed</w>
igh t-
high light</w>
h n</w>
gr ace</w>
dio s</w>
d it
curren cy</w>
compe tence</w>
cli ents</w>
bloo d
b ong</w>
architec ture</w>
af fair</w>
ad jec
Un i
TR Y</w>
Se arch</w>
S weet</w>
Perio d</w>
Ne therlands</w>
Na z
Mus eum</w>
IC H</w>
HA HA</w>
Gen ocide</w>
EL L
Consen sus</w>
Cen tur
Bol locks</w>
Au to
As s
An nie</w>
:5 2</w>
:4 2</w>
# We
zi 's</w>
vari ation</w>
un happy</w>
tre prene
tr icks</w>
so p</w>
sm ug</w>
sl ut
re public</w>
pun ish</w>
po wered</w>
pist ol</w>
pa thy</w>
ou ted</w>
opho bic</w>
nu de</w>
no m</w>
ne wer</w>
mean ings</w>
mag ne
ma tical</w>
iz z
itu de</w>
inger ie</w>
in doctr
g allery</w>
fi a</w>
execu tive</w>
discipl ine</w>
cu red</w>
controll ing</w>
con crete</w>
clown _face</w>
chem istry</w>
check user</w>
bu d</w>
bl ur
be side</w>
appe aling</w>
app lications</w>
a xy</w>
U gh</w>
St even</w>
S uc
Re move</w>
Rac ism</w>
READ Y</w>
Po p</w>
P T</w>
M ass</w>
J IM</w>
I ce</w>
Good bye</w>
GA B</w>
FOR E</w>
De b
Col or
C 's</w>
B ay
:0 9</w>
9 000</w>
#t bt</w>
wi fe
wh ine</w>
re tali
re actions</w>
ran ks</w>
ra pes</w>
preced ent</w>
por no
p ound</w>
on ic
me etings</w>
maxim um</w>
ma kers</w>
m all</w>
l ace</w>
influ ential</w>
increas ingly</w>
inc el</w>
hon esty</w>
han di
ger many</w>
extrem ists</w>
ema iled</w>
desi red</w>
deli very</w>
deli cious</w>
d aft</w>
cl an</w>
borro wed</w>
bas eless</w>
at o
ap ar
anony m
an tic</w>
Wat son</w>
WAL ES</w>
Veg as</w>
V ag
User_ talk</w>
Spre ad</w>
Se attle</w>
S ep</w>
Quo te</w>
Minn eso
Gl en
FA Q</w>
F M</w>
E Y</w>
Char ac
B O</w>
A bor
9 0s</w>
3 8
# black
understand able</w>
smiling_face_with_open_ mouth</w>
sil ver</w>
se min
se ct</w>
rel ates</w>
pro mo</w>
plac ement</w>
perio ds</w>
li o</w>
li br
l ondon</w>
jud ged</w>
je ans</w>
it z
he he
gre e
fre aks</w>
for d
fe aturing</w>
doctr ine</w>
dis agreements</w>
cred entials</w>
consequ ence</w>
can ada</w>
br on</w>
bi kin
batt les</w>
auth entic</w>
ati vely</w>
approxim ately</w>
all y-
acc eler
ac ing</w>
Wor ds</w>
WO W</w>
W ake</w>
T Y
Stand ard</w>
S par
P ink</w>
NE CK</w>
N 'T</w>
M EN
L ater</w>
K an
J on
Hun gary</w>
H uh</w>
H ERO</w>
Fran cis</w>
Fas c
D ES
ANNO N</w>
A E</w>
user space</w>
tal ented</w>
soldi er</w>
simp li
shit ting</w>
sen t
seg ment</w>
screen shot</w>
s word</w>
rati o</w>
part ners</w>
noti fied</w>
ne uro
murde rer</w>
men ted</w>
mang a</w>
k an
jur is
ispan ics</w>
ins anity</w>
head line</w>
gam ers</w>
figh ter</w>
expl ore</w>
errone ous</w>
ep ing</w>
emin i</w>
e at
dre w</w>
domin ated</w>
dism iss</w>
dele tes</w>
cha sed</w>
be ls</w>
and ers</w>
ac her</w>
Wiki project</w>
Wiki Love</w>
U FC</w>
PO RT
P USS
OOOO O</w>
Medi cal</w>
Mar ine</w>
Lo st</w>
Ke ith</w>
K EEP</w>
IR A</w>
Hal f</w>
G W</w>
Fir stly</w>
F ili
Copy rights</w>
Co ast</w>
COMM UNI
Angel a</w>
y ork</w>
slu ts</w>
s v
s ooo</w>
s light</w>
righ tly</w>
rever sed</w>
origin ated</w>
n na</w>
medi um</w>
isol ated</w>
ir rational</w>
incl ined</w>
ha ired</w>
h ater</w>
greg ation</w>
foc using</w>
fa v</w>
e_car _light</w>
desper ately</w>
de pressed</w>
cour age</w>
correc tness</w>
co z</w>
ch err
bul lied</w>
bla med</w>
attribu tion</w>
ar b
ap ore</w>
W GA</w>
Un like</w>
TW O</w>
TR UTH</w>
Sla vic</w>
SH ANNON</w>
S ud
S ony</w>
Ro y
Re al
R iver
Pro posed</w>
Ottom an</w>
Lu ke</w>
Le ad</w>
Is les</w>
In dus
Imm a</w>
IR L</w>
IL D
Gi ants</w>
D etro
D allas</w>
C ALL</w>
A V
:0 1</w>
8 6.
3 0s</w>
. png</w>
#pra y
# pho
tig h
tic ians</w>
tex ting</w>
syn tax</w>
syl vania</w>
supre me</w>
ste pped</w>
smil es</w>
perform ing</w>
misogy ny</w>
man e</w>
j ab
in significant</w>
in jury</w>
happ ier</w>
et up</w>
e ste
dy s
cri ed</w>
coo ked</w>
c ence</w>
billi ons</w>
attr action</w>
argu ably</w>
any one's</w>
anthro po
Yanke e</w>
Way ne</w>
Tr ans</w>
T ou
St ev
R angers</w>
O u
NAZ I</w>
Mat thew</w>
M and
K ansas</w>
HEL P</w>
H R</w>
DR INK</w>
C ut</w>
Afr ic
: 17</w>
ur ple_heart</w>
uck -
tt i</w>
ten ing</w>
ta ke
sta b</w>
se lect</w>
sacrific e</w>
ro oms</w>
ric ul
ret ar
paras ites</w>
om ing</w>
mon t</w>
lead ing_face</w>
hy ster
h 's</w>
grand ma</w>
exam ine</w>
dl ing</w>
defa mation</w>
d al</w>
ch -
cer tain
bour ne</w>
bor der
boo ts</w>
blos som</w>
at y</w>
at ter</w>
art ers</w>
Rev olution</w>
PO V-
P is
P ages</w>
O US</w>
Macedon ians</w>
La stly</w>
K ing
Je ho
Ja ma
IS E</w>
Histor ical</w>
H as
Gur u</w>
G wen</w>
Fin land</w>
E min
E leg
D ad</w>
Br on
Bloo d</w>
Beat les</w>
: 50</w>
2. 0</w>
#MKR 2015</w>
# De
wit z</w>
ver ses</w>
u pp
tion able</w>
the e</w>
th ree-revert</w>
stereo types</w>
sligh test</w>
sl urs</w>
sk ull
seas ons</w>
s ound
ret ard
r ounds</w>
psycho logical</w>
prob ability</w>
mu g</w>
money- mouth_face</w>
k l
j une</w>
h rs</w>
frustr ation</w>
fra ud
fe ld</w>
f lowers</w>
ess ors</w>
dis on</w>
deser t</w>
cur ry</w>
con ve
che z</w>
che er</w>
c igaret
b ou
b ang
automa tic</w>
ate 's</w>
as leep</w>
alg orith
W ARD</w>
Usu ally</w>
T es
Sc and
Par liament</w>
NI GHT</w>
L ind
J ane</w>
Hun ter</w>
Des k</w>
C un
Bro ad
B M
Alban ians</w>
A ut
: 23</w>
9 7
# funny</w>
# ISIS</w>
wh iny</w>
volunte ers</w>
us al</w>
ty ped</w>
they re</w>
suc ces
spec trum</w>
shi eld</w>
search ed</w>
ri ots</w>
rais es</w>
pron unciation</w>
play in</w>
p are</w>
ob tain</w>
o d</w>
myster y</w>
mess y</w>
le mon</w>
l ash</w>
j or
inv itation</w>
imag ination</w>
ill -
har i</w>
ha i</w>
h en</w>
form ula</w>
en or
eder ate</w>
dra matic</w>
don ald</w>
dis agreed</w>
cu lar</w>
cre ature</w>
cop e</w>
conv ey</w>
au tistic</w>
af fairs</w>
a while</w>
W ALL</w>
Victor ia</w>
Ty ler</w>
To tal</w>
To k
Sh y
Remo val</w>
PU BLI
Oper ation</w>
M AT
K ong</w>
HILL BILLY</w>
For mer</w>
Femin ist</w>
FA CE</w>
DI CK
D addy</w>
Cr us
Be ck
Atlan tic</w>
Ar gent
:5 1</w>
: 12</w>
9 9.
10 ,000</w>
# work</w>
# ro
# America
xc 2</w>
vulner able</w>
ver ing</w>
un tagged</w>
summar ize</w>
stor y
ste pping</w>
star ing</w>
sleep ing_face</w>
scrip ts</w>
rela tives</w>
regu lations</w>
ref lection</w>
pl ague</w>
pan ties</w>
opport unities</w>
med al</w>
l ack
k k</w>
insi sting</w>
ink ing_
initi ated</w>
igno res</w>
ig er</w>
friend ship</w>
elec tro
e u
desir able</w>
defen sive</w>
d ads</w>
contradi ct</w>
cock sucker</w>
bound aries</w>
be ans</w>
along side</w>
Y ALL</w>
Spe ech</w>
Se cret</w>
Scor pi
SS SS
PO RT</w>
P ass</w>
Mar vel</w>
Jo b</w>
Il lin
F act</w>
De m</w>
D oug
D at</w>
Cz ech</w>
Cl ass
Ang el</w>
:5 9</w>
:4 8</w>
:3 6</w>
7 77</w>
6 00</w>
#Walk Away</w>
# stop
# gay</w>
# gay
# follow</w>
y as</w>
user box</w>
tribu te</w>
trans l
sub reddit</w>
stereo type</w>
si mu
scr atch</w>
sarcas m</w>
re stra
pur ple_heart</w>
prote sting</w>
p it
op a
off ending</w>
na w</w>
in tu
ho st
gu ise</w>
gre edy</w>
gg ers</w>
for _
fall acy</w>
f usion</w>
f itting</w>
embr ace</w>
doub le-
disappe ar</w>
d um</w>
criti que</w>
co wards</w>
cl inking_
ca uc
brea thing</w>
b n</w>
accoun table</w>
ab ide</w>
Vi ol
U D</w>
Tor i</w>
Tam il</w>
Sm ile</w>
Sim on</w>
S anta</w>
Roman ia</w>
No tic
Ne gro</w>
Mo on</w>
Minneso ta</w>
M iller</w>
M ANY</w>
LEA VE</w>
G 1
Controver sial</w>
C old</w>
B ak
As sume</w>
Ar m
Alter natively</w>
A ppe
# euro
Ä ô
te asing</w>
sto ck
sti g
s ink</w>
produc er</w>
princi pal</w>
ne o</w>
n ick</w>
music ians</w>
mig ration</w>
in qu
in et</w>
hal f
forbi dden</w>
es timat
e ze</w>
d an</w>
cancell ed</w>
broad er</w>
boom ers</w>
blan ked</w>
be having</w>
bb on</w>
ak o
adi se</w>
WOR D</w>
Stu dies</w>
Sh all</w>
Sec retary</w>
ST A
SHO W</w>
Ra p</w>
P ag
N G</w>
Ir on</w>
Gu n</w>
Femin ists</w>
C P</w>
Bro ther</w>
Bio graphy</w>
BITCH ES</w>
Armen ians</w>
#pho too
#WW G1
# grateful</w>
win dows</w>
wel com
war fare</w>
vir tual</w>
trann ies</w>
to wer</w>
th umb</w>
sp ur
she 'll</w>
respec ting</w>
re produce</w>
op ens</w>
n in
mo cking</w>
ma h</w>
la m</w>
ki ly</w>
kh s</w>
ju ana</w>
im o</w>
hun g</w>
g 's</w>
fle sh</w>
disrup t</w>
cruc ial</w>
cra ppy</w>
coun tr
conclu ded</w>
clow ns</w>
classi fication</w>
cha ir
bur st</w>
brea the</w>
bassad or</w>
at or's</w>
al us</w>
advoc ates</w>
ab bre
You 'd</w>
Qu ick</w>
O ri
Never theless</w>
NO R</w>
Is sue</w>
Inci dents</w>
Har d
H old</w>
GE OR
Fa ir
F estival</w>
F C
E dition</w>
E P</w>
Dra ke</w>
Dr agon</w>
De li
Cam pa
B old</w>
B int</w>
An s
Administr ator</w>
AL S</w>
ADMIN IST
# travel</w>
# ra
us able</w>
th ri
th al</w>
ter ns</w>
t ol
so ap
shor ts</w>
sha res</w>
se ven
s incere</w>
ri l</w>
remem bered</w>
pra yers</w>
po em</w>
num er
n ical</w>
moder ator</w>
inv aded</w>
int age</w>
info boxes</w>
hur ry</w>
he m</w>
gri p</w>
fal len</w>
f art</w>
ev i
en forced</w>
dist inc
dam aging</w>
dam aged</w>
d ding</w>
cus to
conc ise</w>
cla use</w>
b ust</w>
b oun
Worl d
S aint</w>
R um
R ho
PUSS Y</w>
No bel</w>
New s
N R
MU D</w>
K ra
K ho
Jo shu
Dar win</w>
Con ver
Cl assic</w>
Britann ica</w>
BLO CKED</w>
BE FORE</w>
B ish
Ander son</w>
:0 8</w>
9 th</w>
6 7.1
6 6
0. 0</w>
#follow me</w>
worth while</w>
we ars</w>
wa king</w>
vic ious</w>
v ing
us ible</w>
tic ated</w>
the ast</w>
survi val</w>
sub ur
sm art
sec ret
re ign</w>
prote sters</w>
phras ing</w>
persecu tion</w>
peer- reviewed</w>
oppon ent</w>
meas ure
k n</w>
j in</w>
int -
igh t's</w>
gu ts</w>
gene tics</w>
gen e</w>
exten sion</w>
electr onic</w>
dou che
discour aged</w>
cri tic</w>
concentr ation</w>
con version</w>
con sum
con spir
bre xit</w>
big ots</w>
bene ficial</w>
bac on</w>
ar se
amer ic
Th er
T en</w>
Re fuge
Re f
M AGA</w>
LOLOLOLO LOLOLOLO
Detro it</w>
D ist
AS AP</w>
: 26</w>
8 8
7 5.
24 .2
#sun day</w>
#photoo ftheday</w>
#G amer
# porn</w>
won dered</w>
w er
vis ual</w>
un i</w>
um in
subsequ ently</w>
ster ing</w>
sta dium</w>
speci fic
sha dow</w>
ru be</w>
re writing</w>
ran kings</w>
r ad
p ad</w>
om ed</w>
n ell</w>
n an</w>
mean while</w>
manipu lation</w>
m ighty</w>
l y_
ke en</w>
joh n</w>
jack ass</w>
i amond_suit</w>
fer red</w>
encyclope di
eder ation</w>
dem on</w>
de port</w>
da b</w>
copy -
comm itment</w>
collabor ative</w>
civili an</w>
cab al</w>
b u</w>
am bi
achiev ements</w>
_ arrow</w>
War ri
Stu b</w>
Si kh</w>
Ser vices</w>
SH OO
S kin
Q a
P M
O thers</w>
N on
Loc al</w>
Hea ven</w>
F W</w>
Bro thers</w>
B et</w>
B all</w>
Anglo -
: 27</w>
#M V
# le
w d</w>
tw er
tran sport</w>
sub si
su l</w>
s can</w>
re infor
pl ural</w>
pis sing</w>
ph ant</w>
percent ></w>
ped ophiles</w>
paralle l</w>
onom y</w>
ok _
n oun</w>
mor ality</w>
man_shrugging_ medium_skin_tone</w>
k night</w>
invest ment</w>
in definite</w>
implemen ted</w>
grou p
good bye</w>
gener ate</w>
ge st
ge or
fi x
doub ts</w>
don ate</w>
design er</w>
contro ls</w>
cle ared</w>
chi at
brut al</w>
ant ine</w>
an ist</w>
ame ter</w>
Won der</w>
Wo ah</w>
USS R</w>
ST FU</w>
S hel
Nation al
Mu zzie</w>
McC ain</w>
M ale</w>
Lic ense</w>
H ad
G ul
G ON
FA R</w>
F S</w>
Ex plo
Common wealth</w>
C ari
Bro ok
Alban ia</w>
Al bert</w>
Ad olf</w>
A g
< percent></w>
:4 1</w>
#be st
z oo</w>
worl ds</w>
v ors</w>
tra it</w>
te ens</w>
st ems</w>
st alk</w>
soci alists</w>
skull _and_
skull_and_ cross
skull_and_cross bones</w>
sh outing</w>
sequ ence</w>
separ ated</w>
res on
re ward</w>
r in
po ps</w>
pla in
pay ment</w>
ou s_
or phaned</w>
olu tions</w>
occas ion</w>
nic er</w>
ni pple</w>
new ly</w>
mosqu e</w>
mid -
manipul ated</w>
la di
kne es</w>
jack et</w>
inter actions</w>
gossi p</w>
gen ital</w>
franch ise</w>
enti ties</w>
di e
cry p
consi sts</w>
con te
col leagues</w>
can cel</w>
ast on
app la
TT ER</w>
Sock puppet</w>
S CO
Pro file
Ne il
Mon tene
Mem bers</w>
Mach ine</w>
Lin ux</w>
EEEE EEEE
E ST
Den nis</w>
B ang</w>
Aus tin</w>
AT ING</w>
:0 5</w>
3 D</w>
2 50</w>
197 5</w>
#New Profile
# like
# Go
y the
ustr ali
under lying</w>
un helpful</w>
st uck-
sme ar</w>
shoo ter</w>
sen ds</w>
ri fle</w>
re vel
pu b</w>
pla usible</w>
ona than</w>
n ing
loo k
is lands</w>
for k</w>
ff ing</w>
fal se
f y
f ly
en tr
discrimin ate</w>
comm on
com /
col ours</w>
car bon</w>
b en</w>
al be
ag ents</w>
ad venture</w>
ab sor
a w</w>
Th ree-revert</w>
S ports</w>
R ice</w>
R and
Pro vi
Nation alist</w>
NE WS</w>
J on</w>
Hy po
Fe eling</w>
Cr y
B uck
B M</w>
ADMINIST RAT
:4 4</w>
6 0
. What</w>
. The</w>
# mo
y im</w>
wor rying</w>
with draw</w>
v ich</w>
un free</w>
un done</w>
to ys</w>
the wall</w>
the ad</w>
sub page</w>
stuck- out_
sovere ign</w>
sor ting</w>
sm elly</w>
sel s</w>
ri o
rese arching</w>
red necks</w>
rap idly</w>
pregn ancy</w>
no thin</w>
new s
near by</w>
my thology</w>
mp h</w>
j ug
inter n
id al</w>
hum our</w>
ho sts</w>
gr ind</w>
ge stu
g -
face_with_ stuck-out_
f ing</w>
e cho</w>
do e</w>
do d
cor respon
cen tly</w>
bor ough</w>
bab y
ap poin
and er
adm ire</w>
Z ero</w>
Sa w</w>
S cre
Ph D</w>
OO F</w>
M D</w>
KI KE</w>
K en</w>
I gn
H aw
Gi b
Fem ale</w>
En ter</w>
EX T</w>
E mail</w>
Develo p
D ark
Bri dge</w>
Ber n
BAN NED</w>
Aw esome</w>
AF TER</w>
A U
. JPG</w>
#x xx</w>
#WWG1 WGA</w>
#America First</w>
# br
wor m</w>
warri ors</w>
vis itors</w>
um bre
tri ppin</w>
to ken</w>
the or
teach ings</w>
reti rement</w>
ref lected</w>
ra h</w>
qu ar
pp ies</w>
pl ates</w>
pe ac
parano id</w>
mand atory</w>
l 's</w>
k ick
j w</w>
investig ated</w>
inter act</w>
i v</w>
fac to</w>
ess ence</w>
desp ise</w>
cowar dly</w>
ca tive</w>
ca sts</w>
bit ing</w>
bad ge</w>
ba iting</w>
av a</w>
arro w_
WW 2</w>
Pr of</w>
Pen n
Mo ore</w>
M EN</w>
K night</w>
H ome
G one</w>
EN G
Da ys</w>
B LEA
A 's</w>
8 :</w>
6 8.1
10 -
0000 00</w>
whit ew
trag ic</w>
tra ins</w>
tim ated</w>
text book</w>
strugg ling</w>
strate gic</w>
str a</w>
stal ker</w>
st ake</w>
ss ss
so o</w>
ro of</w>
res cue</w>
prac ti
philosoph ical</w>
patri archy</w>
out a</w>
no- one</w>
ne phe
nation ally</w>
na p</w>
mon um
mis guided</w>
men tal
m ons</w>
lo lo
kes pe
j an
it z</w>
inf ra
imag inary</w>
ign ty</w>
high lights</w>
heart _with_
gus ting</w>
gradu ated</w>
ga tive</w>
g olf</w>
expen se</w>
exclu ded</w>
et a</w>
ed alus</w>
disc over
d as</w>
challeng es</w>
bu gs</w>
bre ach</w>
bat tery</w>
a us
Y el
Wh enever</w>
W es
W H</w>
Tem ple</w>
Techno logy</w>
T RO
S ELF</w>
Pu erto</w>
Por tland</w>
Ne il</w>
M ENT</w>
Gen der</w>
F ic
Evi dence</w>
Egyp tian</w>
D EAD</w>
Chall enge</w>
Ans wer</w>
Ad v
9 0
#NewProfile Pic</w>
#Gab Fam</w>
#F ree
wh olly</w>
web page</w>
w ha
ud ge</w>
top s</w>
ti veness</w>
ter -
slo pe</w>
ric h
race card</w>
proper ties</w>
profession als</w>
pre pare</w>
pan el</w>
manipu late</w>
l t</w>
k ore
illustr ation</w>
hist ories</w>
fun eral</w>
est er
equ als</w>
enjo ys</w>
en able</w>
dise ases</w>
deli ver</w>
d dle</w>
contradic tory</w>
con fet
ch en</w>
certi fic
bul lies</w>
bel li
at least</w>
an gu
alum ni</w>
advoc acy</w>
ad here</w>
ab road</w>
a "</w>
V U
Tal king</w>
SJW 's</w>
S wit
R emin
Pro gram</w>
Po ssibly</w>
P lat
P UT</w>
Nip sey</w>
Mo m</w>
Gra ham</w>
Ge o
F ar</w>
EN CE</w>
E instein</w>
Direc tor</w>
Defin itely</w>
D R</w>
Bo om
Bey ond</w>
B att
Armen ia</w>
8 0s</w>
8 0
198 7</w>
197 0</w>
100 ,000</w>
ye p</w>
woman_facepalming_ medium_skin_tone</w>
wi ped</w>
wa ffle</w>
w w</w>
user boxes</w>
ul u</w>
transp ho
tou ching</w>
tat too</w>
t ing
sle pt</w>
se ve
ro aches</w>
ri an</w>
res ses</w>
pro portion</w>
pro of
pre mise</w>
pr ince</w>
pol itely</w>
p ounds</w>
organ ic</w>
o t
o id</w>
night mare</w>
nam ese</w>
man kind</w>
love -
lap top</w>
in vo
i res</w>
har dest</w>
gu y's</w>
fac tory</w>
explo d
explod ing_head</w>
es "</w>
e_ and_
di gn
conf used_face</w>
con tempt</w>
compli ment</w>
cl one</w>
ch u</w>
car ries</w>
c uck
br ush</w>
appear ances</w>
adm its</w>
Wi LL</w>
W ELL</w>
Retur ns</w>
RT R</w>
Pi er
P artic
N ature</w>
N ancy</w>
Kur dish</w>
H mmm</w>
Ga za</w>
GRE E
FUCKFUCKFUCKFUCKFUCKFUCKFUCKFUCK FUCKFUCKFUCKFUCKFUCKFUCKFUCKFUCK
Dro p</w>
D umb
Categ ories</w>
Bar ry</w>
Any body</w>
A y
:5 4</w>
:3 9</w>
: 25</w>
: 11</w>
# ch
yyyyyyyyyyyyyyyyyyyyyyyyyyyyyyyy yyyyyyyyyyyyyyyyyyyyyyyyyyyyyyyy
yuyuyuyuyuyuyuyuyuyuyuyuyuyuyuyu yuyuyuyuyuyuyuyuyuyuyuyuyuyuyuyu
x -
woman_facepalming_ medium-dark_skin_tone</w>
trus t
sp ade
so ap</w>
sal v
s le</w>
re inst
pro pon
pre view</w>
person nel</w>
paro dy</w>
par liament</w>
p itch</w>
o x</w>
o red</w>
o ke</w>
nomin ating</w>
nnnnnnnnnnnnnnnnnnnnnnnnnnnnnnnn nnnnnnnnnnnnnnnnnnnnnnnnnnnnnnnn
nes sed</w>
mer cy</w>
ma il
k al
iz er</w>
fas cists</w>
evid ently</w>
environ mental</w>
disp ar
disappe ared</w>
dict ator</w>
di al
de vices</w>
cont ention</w>
confet ti
con gress</w>
close st</w>
cham ber</w>
ch ink</w>
cen tered</w>
celebr ated</w>
c ali
blin dly</w>
ban ana</w>
au tism</w>
af ric
aaaaaaaaaaaaaaaaaaaaaaaaaaaaaaaa aaaaaaaaaaaaaaaaaaaaaaaaaaaaaaaa
Wan ted</w>
Un block</w>
UC K</w>
Su Pe
Pro vince</w>
Pro fes
M ir
L S</w>
Hor se</w>
Guar dian</w>
F un</w>
Di ego</w>
Da edalus</w>
Co le</w>
Centur y</w>
Archi ves</w>
Al abama</w>
: 29</w>
9 9.1
9 11</w>
0 LL</w>
- minded</w>
# 2
" What</w>
ا ل
welcom ed</w>
ver b</w>
vehic les</w>
tytytytytytytytytytytytytytytyty tytytytytytytytytytytytytytytyty
ten sion</w>
ted _face</w>
spo iled</w>
se ed</w>
ro prac
real izing</w>
read able</w>
re- create</w>
qu an</w>
pun ched</w>
pun c
propag andi
plan es</w>
pe st</w>
pat rol</w>
over come</w>
ok_ hand_sign</w>
of theday</w>
no l
new bie</w>
neighb our</w>
n in</w>
le aning</w>
in coherent</w>
fin als</w>
exten sively</w>
determin ation</w>
confetti _ball</w>
comprehen sion</w>
bo y_
ba be
ashing_ away</w>
ack ers</w>
academ ia</w>
Tur kic</w>
Ta g</w>
T OR</w>
SuPe RTR</w>
Sit ush</w>
Sex y</w>
S pic
N intendo</w>
MM A</w>
Ly n
Li thu
LI ST
K on
J onathan</w>
IS S</w>
H ong</w>
Ge e</w>
GEOR GE</w>
Emin em</w>
Eleg y</w>
E mer
Con ference</w>
Commun ic
Ci ties</w>
B locking</w>
B iden</w>
Americ as</w>
AN CE</w>
:0 6</w>
9 69</w>
7 6.
3 ,
# X
ump kin</w>
tre ats</w>
ten se</w>
t reas
swit ched</w>
sub stitute</w>
rout ine</w>
roman tic</w>
reser ve</w>
re tain</w>
profes sion</w>
ph on
ox y
oper ated</w>
minim al</w>
m ugs</w>
less ons</w>
kill ers</w>
j im
is er</w>
in u
ig ade</w>
i z</w>
h mm</w>
gro cer
form ally</w>
estimat es</w>
dr agged</w>
disco very</w>
disco graphy</w>
corpor ations</w>
br ac
blo gger</w>
believ ers</w>
author itarian</w>
alo g</w>
all er
al lah</w>
ab und
a del
Wh ats</w>
Valent ine</w>
Un sourced</w>
Squ are</w>
S mi
Recogn ise</w>
Ra il
R ain</w>
O i</w>
ID E</w>
H H</w>
E PIC</w>
D ata</w>
D M
Cha m
C RI
Br un
B ar</w>
AL SO</w>
A WAY</w>
: 24</w>
ver bal</w>
ven s</w>
v et</w>
v able</w>
un did</w>
tu esday</w>
tr ashy</w>
ti ble</w>
ten nis</w>
te ed</w>
tane ously</w>
t ag
simu lation</w>
ro bot</w>
publi city</w>
photo grapher</w>
objec tively</w>
no tation</w>
l as
inv ading</w>
infring ement</w>
ill us
ific ation</w>
i do
hy dro
ha bits</w>
grad es</w>
gl or
foot age</w>
follow er</w>
fai thful</w>
el ed</w>
dro ve</w>
do se</w>
discour se</w>
defam atory</w>
cri p
club _suit</w>
cap ture</w>
c ca</w>
bur nt</w>
bikin i</w>
as ons</w>
archi ving</w>
antic ip
achiev ement</w>
abbre vi
a ids</w>
Y ET</w>
Wat er
W N
T RE
Ser b</w>
S ag
RE MO
Pri ze</w>
LE TS</w>
K ate</w>
Gen esis</w>
F T
Dis pu
D 's</w>
Cam bridge</w>
C ute</w>
Bre ak
BA ST
B ha
A x
A K</w>
:4 6</w>
3 5
198 2</w>
00 0
# st
# news</w>
# home</w>
# en
# 000000</w>
z a
you _
water_ wave</w>
v as</w>
un stable</w>
tur key</w>
try nna</w>
ti t</w>
ther hood</w>
th en
sym pathetic</w>
sca pe</w>
resi dent</w>
reli ably</w>
ra il</w>
ra g</w>
quer ies</w>
preven ting</w>
out out</w>
oo h</w>
oblig ation</w>
no ble</w>
mem or
me _
li ve
l ingerie</w>
kic ks</w>
iz on</w>
inten do
ing ness</w>
hypocr ites</w>
hand some</w>
func tioning</w>
fil ing</w>
ent ucky</w>
d r</w>
cross -
cau tion</w>
au to</w>
ant agon
V ene
Tra ining</w>
Te a</w>
T est</w>
ST A</w>
SA IDS</w>
R ing</w>
PER IO
P AR
Niger ia</w>
Mc Donal
Man i
Mag ic</w>
L O</w>
Il legal</w>
Gamer gate</w>
Episo de</w>
D J</w>
Cre ative</w>
Cor rect</w>
CHAN HERO</w>
CH IC
BLEA CHANHERO</w>
B ER
Arb com</w>
Al pha</w>
Al ber
:5 6</w>
:3 1</w>
: 22</w>
#t cot</w>
" It</w>
was ti
ven tures</w>
ussi e</w>
um ped</w>
tw enty</w>
the ft</w>
sav ages</w>
satisfac tion</w>
s log
rum ors</w>
red ited</w>
re sted</w>
pseu do-
promis ing</w>
prof essors</w>
pos al</w>
polit an</w>
p s
oul da</w>
num bered</w>
non e
n est</w>
m ouse</w>
ligh ter</w>
legi ance</w>
labe lled</w>
k ur
it ated</w>
it ably</w>
impro per</w>
id c</w>
i le
hol d
hash tag</w>
gu es</w>
gram matical</w>
ga ins</w>
es p</w>
engine er</w>
emplo yer</w>
don ations</w>
cul tur
convic tion</w>
con descending</w>
ci ally</w>
ch ess</w>
al tar</w>
ac r
aband oned</w>
Yugosla via</w>
W anna</w>
To day's</w>
T our</w>
Str ong</w>
Sing le</w>
S ul
Pri v
Phi los
Man ia</w>
MOTH ER</w>
Lo g</w>
Inde pendent</w>
In ves
Illin ois</w>
I on</w>
Fore ign</w>
FA IL
F ort</w>
E ve</w>
Down load</w>
Cri me</w>
Col om
Col lins</w>
Chel sea</w>
AMERIC AN</w>
A 1</w>
# dog</w>
wit nessed</w>
wel coming</w>
wa ited</w>
un believable</w>
terri bly</w>
talk -
sy sop</w>
sub st</w>
su ited</w>
spl itting</w>
sens ical</w>
sen al</w>
scru tiny</w>
s ch</w>
russi a</w>
rail way</w>
qu ery</w>
nigg a's</w>
mil f</w>
mas ks</w>
ma c</w>
liber tarian</w>
le ans</w>
l sive</w>
hu b</w>
hind u</w>
govern or</w>
gen oci
fla ws</w>
fl agged</w>
fir ing</w>
face_with_ tongue</w>
expi res</w>
es timate</w>
embarras sed</w>
den se</w>
contradi ction</w>
col leges</w>
co ons</w>
chi ps</w>
bon us</w>
av i</w>
ash a</w>
as sign
arb com</w>
ar on</w>
ar di
adop tion</w>
X -
THE AD</w>
TAB TAB</w>
T old</w>
SUR REN
SURREN DER</w>
ST RA
S ug
Per son</w>
OO N</w>
Mo sul</w>
L ong
L AT
IP 's</w>
Hin du
Govern or</w>
GON NA</w>
G AN</w>
F atu
DELE TE</w>
C itation</w>
C ALL
Ab use</w>
AID SAIDS</w>
ADMINISTRAT OR</w>
18 th</w>
#S JW</w>
# to
# fuck
# ed
woman_shrugging_ medium_skin_tone</w>
un ic
tour nament</w>
the ology</w>
the o
symp toms</w>
struc tion</w>
ste am</w>
spe e
sli me</w>
shi p
se arches</w>
sc ent</w>
sanc tioned</w>
s issy</w>
ri ders</w>
res or
qu arters</w>
oper ative</w>
o ked</w>
monit oring</w>
min i</w>
medi eval</w>
m it
light grey</w>
le ments</w>
la ying</w>
jun gle</w>
in secure</w>
in as</w>
ho sted</w>
gyp sies</w>
gar den
g low
for getting</w>
flexed_biceps_ medium_skin_tone</w>
fe tish</w>
fe ar
f lies</w>
dum best</w>
cy ber
cus tom</w>
com pos
certain ty</w>
b ap
ati vity</w>
ath on</w>
at sheet</w>
Whe re's</w>
Sciento logy</w>
SP I</w>
S BS</w>
Rus sell</w>
Ru le</w>
Pl ace</w>
Offic er</w>
Nor we
Moun tain</w>
MIL LION</w>
K ey</w>
Ig nor
Hind i</w>
H ood</w>
CRAPCRAPCRAPCRAPCRAPCRAPCRAPCRAP CRAPCRAPCRAPCRAPCRAPCRAPCRAPCRAP
Apo logies</w>
8 1.1
will ingness</w>
w ning</w>
vo ic
view ers</w>
under mine</w>
un cited</w>
tr app
to red</w>
teen agers</w>
st ain</w>
spe ll
spade _suit</w>
sp y</w>
so lic
ri ot</w>
real -
ran ked</w>
ra mp
ra d</w>
preven ted</w>
presi dency</w>
po ckets</w>
pa kis</w>
organis ations</w>
mo tive</w>
mi li
l ing
kis sing</w>
kill ings</w>
integr ate</w>
haz el</w>
goo d-
fundamen tal
fir st-
es ar</w>
ende av
en sla
dre am
dra w
de ms</w>
de adly</w>
custo dy</w>
cor ro
con sin</w>
con s</w>
comp as
border line</w>
bean er</w>
affec ts</w>
a ked</w>
WHO LE</w>
V I</w>
Th inking</w>
Te am
T our
Sugg es
SP E
R al
Olymp ics</w>
Non- free</w>
N ep
N H
Matt ythe
Li fe
LO W</w>
K el
I ll</w>
HE Y</w>
HAHAHA H</w>
Gam ali
G onna</w>
Fore ver</w>
F lo
Car l</w>
COMP UT
Buil ding</w>
Bar bar
B aker</w>
Ar k
Addi tional</w>
A ries</w>
A I</w>
:5 3</w>
:0 4</w>
3 7
19 2</w>
#MV Sales</w>
# r
# National
woo d
wh ip</w>
w rap</w>
vi ds</w>
ven tion</w>
val ry</w>
un involved</w>
tr ace</w>
t ens</w>
stra ight
str anger</w>
sta irs</w>
sp r
sp ar
so y</w>
sli p</w>
seve rely</w>
sal ty</w>
respec ts</w>
qu arter</w>
pedophi lia</w>
p an</w>
ona ire</w>
noti fy</w>
none theless</w>
mu ti
mis use</w>
mathema tics</w>
mad ness</w>
le mme</w>
in fe
high_ voltage</w>
foot ball
esp ace</w>
eng land</w>
en h
e "</w>
col or
chi p</w>
be ars</w>
babe cock</w>
b bean</w>
ash i</w>
ani mation</w>
all y
albe it</w>
ad he
accompli sh
a es
Z Z
Woo d
Vir go</w>
Vag ina</w>
T B
Sand y</w>
S id
P et
P aren
Mattythe white</w>
K im
K ha
Ho es</w>
German ic</w>
Ga ys</w>
Fatu orum</w>
F all</w>
EN ING</w>
C IT
Bang la
AC TU
:4 9</w>
3 60</w>
14 th</w>
10 th</w>
vi able</w>
trans ferred</w>
th ou</w>
th less</w>
teen age</w>
targe ting</w>
sur ve
spon sored</w>
spo ts</w>
soci et
sc roll</w>
ro t
respec table</w>
refu te</w>
r inge</w>
propor tion
produc es</w>
pr ised</w>
pi x
pi res</w>
o ther's</w>
no p
mex ican</w>
me tric</w>
me t
lma ooo</w>
lig ent</w>
indus trial</w>
imp lication</w>
id ers</w>
hi er
h it
gr ay</w>
goo ds</w>
g ates</w>
fon t-
fin est</w>
fi el
f l</w>
extin ct</w>
en o
ele ct</w>
don key</w>
di min
d '
cros sing</w>
christ mas</w>
c tor</w>
bre eds</w>
boo m</w>
bas hing</w>
at ly</w>
appreci ation</w>
affir mative</w>
ad mission</w>
ac ri
T UR
T T</w>
Ste p</w>
P in
N l
N PC
Mari e</w>
L loyd</w>
K ol
K le
K O
Jiha di</w>
Jef fer
G emini</w>
Fal se</w>
F red
F ig
EA K</w>
Car avan</w>
C li
Bo ss</w>
Ber nie</w>
Assyri an</w>
: 13</w>
19 1</w>
v est</w>
v em
v ative</w>
ur ity</w>
un sure</w>
ul ous</w>
tr ic
th t</w>
ta h</w>
som eday</w>
sla m</w>
ski p</w>
se y
ro om
reser ved</w>
res a</w>
remark able</w>
ra m</w>
qui red</w>
pi lot</w>
phi c</w>
ophi le</w>
oncoming_ fist</w>
oc y</w>
misogy nist</w>
mar gin</w>
love- you_
ki m</w>
iz ations</w>
influ ences</w>
in herent</w>
im po
illustr ates</w>
hat _face</w>
h ers</w>
go ts</w>
g ust</w>
g em
foo ds</w>
far -
eth no
enor mous</w>
desc ended</w>
dele te
de f</w>
cow boy_
cowboy_ hat_face</w>
continu ously</w>
car avan</w>
be loved</w>
b end</w>
b ally</w>
at able</w>
as sy</w>
ach ment</w>
a unt</w>
a ster
a ired</w>
_ tree</w>
Th ing</w>
Stu dent</w>
Stor m
RA CE</w>
NI A</w>
N EE
Li ves</w>
L and
K end
IN DI
IN A</w>
IC AL</w>
Exam ple</w>
EVERY THING</w>
Contro l</w>
Con fir
Cap ric
C BS</w>
Azerbaij an</w>
Atlan ta</w>
Ari z
Ar ts</w>
Andro id</w>
AL ONE</w>
A bo
:5 7</w>
: 18</w>
197 9</w>
- based</w>
# sh
# bb
# In
w i</w>
tion 's</w>
ti est</w>
temp er</w>
sun g</w>
spo tted</w>
see ks</w>
se as</w>
s igh</w>
pul se</w>
p as</w>
p acked</w>
op her</w>
ona virus</w>
nation al
l ur
kne e</w>
ki a</w>
imp lications</w>
hol lywood</w>
hol ders</w>
hi de
hetero sexual</w>
geo graphy</w>
g i</w>
free -
face_with_ sweat</w>
fac ial</w>
dr un
dign ity</w>
de but</w>
choo ses</w>
c ans</w>
c and
bas h</w>
assass ination</w>
argu es</w>
ad ul
ab uses</w>
Soci alism</w>
S ick</w>
S ain
Re plac
MO ST</w>
Hom o
Gamali el</w>
F inn
Dis gusting</w>
Develop ment</w>
C lose</w>
B bb</w>
B ag
B OUT</w>
AN G
AG O</w>
: 28</w>
9 99</w>
198 5</w>
# Co
z ation</w>
wi g</w>
uc h
tongu e_and_
th a
t ability</w>
slut ty</w>
slaugh ter</w>
s ong
ro ts</w>
ro ster</w>
ro oling_face</w>
reci pi
re de
r ural</w>
pre dict</w>
po ison</w>
plat forms</w>
pal est
opin ion
meta ph
inv ention</w>
in corporate</w>
identi fies</w>
gam er</w>
fr ance</w>
fool .What</w>
fi xes</w>
face_with_stuck-out_ tongue_and_
ear liest</w>
di cr
cor ona</w>
constr ued</w>
comm ies</w>
colon ial</w>
challeng ing</w>
cel ona</w>
car ri
blon des</w>
bitch Mattythewhite</w>
attribu te</w>
alpha bet</w>
adi ly</w>
YOU' RE</w>
Ver sion</w>
TO DAY</w>
Star ted</w>
RED NECK</w>
Pl an</w>
Man agement</w>
M IN</w>
Ign ore</w>
IL D</w>
H EAD</w>
Gi br
GRE AT</w>
FU L</w>
D ance</w>
Ch ris
An onymous</w>
Abra ham</w>
AS ED</w>
:0 7</w>
20 9</w>
1 20</w>
- like</w>
# cool</w>
wikipedi an</w>
wikipedi a's</w>
we althy</w>
um es</w>
tr ading</w>
tion aries</w>
there by</w>
t ards</w>
sha de</w>
re p</w>
pat terns</w>
paki stan</w>
pag an</w>
pa ths</w>
on en</w>
om ination</w>
nu tri
n itch</w>
mm mm
loy alty</w>
long est</w>
kin dness</w>
jur ies</w>
intellec tually</w>
ing_ star</w>
in habit
gra vity</w>
frequ ent</w>
fing ering</w>
fasc inating</w>
f ounding</w>
dra ws</w>
dil do</w>
critic izing</w>
cou ver</w>
conven tional</w>
compar able</w>
co tton</w>
cap tain</w>
beat ing_heart</w>
att ending</w>
ag ons</w>
Whe re
W ood</w>
VO TE</w>
UND UE</w>
T ower</w>
T LE</w>
Sh oo
Replac eable</w>
R em
Pol y
Po tter</w>
P on
OR S</w>
N in
M ars</w>
M ad</w>
IR S</w>
DI S
Con gres
Che e
Cast le</w>
CK ING</w>
Bu y</w>
A IV</w>
:5 8</w>
:3 7</w>
6 7
13 .
# so
voc abul
vari ant</w>
ul ties</w>
tu ation</w>
th is
th ier</w>
sor ship</w>
snap chat</w>
si an</w>
sh aria</w>
sc ow</w>
s light
s ist</w>
reli ef</w>
real est</w>
re jection</w>
rag head</w>
or o
mor ally</w>
mer ly</w>
me ter</w>
mascul ine</w>
liz ed</w>
li b</w>
inv iting</w>
inv en
im partial</w>
im men
gl adly</w>
f ence</w>
en ix</w>
embarras sment</w>
dres ses</w>
dec ency</w>
co ding</w>
can cel
c m</w>
bu m
backhand_index_pointing_ down
b les
alpha be
adel phi
add le</w>
Z ERO</w>
You th</w>
Y EA
Wi kipe
W it
W W</w>
W IN
US ING</w>
Scorpi o</w>
SH IP</w>
Prote stant</w>
P ul
P ay</w>
P L</w>
Neil N</w>
Ne eds</w>
M illion</w>
G et
G T
Del hi</w>
Cra ig</w>
Car ter</w>
COMPUT ER</w>
C loud</w>
Bra h
BO Y</w>
As su
AT TA
A PP
:4 7</w>
:3 8</w>
: 21</w>
# slut</w>
# Ma
yy yy</w>
wre ck</w>
w art</w>
travel ing</w>
ti fication</w>
st ressed</w>
spe ct</w>
sovere ignty</w>
smoo th</w>
slight ly_
shrugg ing</w>
re venue</w>
psy chop
op tim
ner ves</w>
na il_
manufac tu
lor ds</w>
la h
ist ers</w>
idi ocy</w>
ideo logies</w>
i 's</w>
feren t</w>
es -
er ial</w>
equ ation</w>
el son</w>
el 's</w>
dict ator
den ies</w>
de ss</w>
de pendent</w>
cr inge</w>
communic ations</w>
cal cu
buck et</w>
athle tes</w>
at -
and re</w>
an ec
ac tu
Thr ough</w>
Sh or
San chez</w>
SI X</w>
S argon</w>
S ING
S IM
Regi onal</w>
Organ ization</w>
OO L</w>
Nor man</w>
No tes</w>
Mol do
Li b
La quan</w>
Gre ater</w>
De rek</w>
D ick
Con nec
B li
As ked</w>
An ne</w>
3 4
2. 5</w>
198 0s</w>
# on
# foo
# V
y t</w>
y ell</w>
tr acking</w>
smiling_face_with_open_mouth_and_ tightly-closed_eyes</w>
sign i
si zes</w>
she er</w>
sha ped</w>
red_ circle</w>
rat chet</w>
r aging</w>
po pped</w>
person alities</w>
percei ve</w>
pen sive_face</w>
pan ic</w>
pa int
nor m</w>
meas ured</w>
m ill</w>
los i</w>
ll o</w>
li d</w>
lef ty</w>
lea f</w>
l is</w>
l bs</w>
k han</w>
is appoin
inn ers</w>
infor ming</w>
in ability</w>
ide als</w>
happ y
h ats</w>
gra v
frequ ency</w>
fraud ul
fore st</w>
f is
establish ing</w>
eng ines</w>
enc y
dum my</w>
disrup ting</w>
di ce</w>
dec ei
cour ses</w>
catho lic</w>
casu alties</w>
b ass</w>
ash mir</w>
app s</w>
ap a</w>
anti semitism</w>
alt- right</w>
a o</w>
TR S</w>
TI M
T ali
Supp or
SID E</w>
S U</w>
O ak
Nic hol
Met ro
Mark et</w>
Ma h
Jay mes</w>
IN T
HA AH
F our
Ev ans</w>
Enter tainment</w>
Dig ital</w>
D ream</w>
Color ado</w>
Bi bli
B ong
An ni
197 3</w>
#MKR "</w>
z bol
y ah</w>
was sup</w>
w adh
vig il
us t
un supported</w>
tren ds</w>
te aches</w>
sur ing</w>
stub born</w>
stam ps</w>
st en</w>
self- published</w>
se man
s ly</w>
qu antum</w>
per taining</w>
pack age</w>
ol d
non- white</w>
nephe w</w>
mosle ms</w>
loo p</w>
long- term</w>
liber alism</w>
le d_
im port</w>
glow ing_star</w>
ghe t
fre ed
f ishing</w>
exclu ding</w>
edi tions</w>
displa ys</w>
den tly</w>
d read
clapping_hands_ sign</w>
cl int
ch inks</w>
car pet</w>
ca ve</w>
blan ket</w>
bb les</w>
b ber
asser ted</w>
archa e
al er
a qu
YO UNG</w>
W right</w>
W ERE</w>
They 've</w>
T W</w>
Spe ak</w>
S ound</w>
O ops</w>
MUS IC</w>
Like wise</w>
K ey
K ES</w>
Jere my</w>
Gi veaway</w>
F B</w>
EVER YONE</w>
Dre am
Cro wn</w>
Bo t
A stro
:4 3</w>
7 0.1
#not sexist</w>
# politics</w>
# mi
# jo
" No</w>
" A</w>
week ly</w>
vocabul ary</w>
v ital</w>
un c
tri pping</w>
temp ted</w>
t reason</w>
supp lied</w>
sun _with_
sun_with_ face</w>
ste ady</w>
sp a
soci op
si le</w>
sha m
sh ee
s wasti
reci pe</w>
raising_hands_ medium-dark_skin_tone</w>
rac ially</w>
pro claimed</w>
prepar ing</w>
pre domin
pra yer</w>
ome ter</w>
ob serve</w>
o li
ne ts</w>
le .
io sity</w>
inv ade</w>
im peri
gg gg
gener ous</w>
ge e
g on
fo res
fe at</w>
este em</w>
en ab
e ac
collabor ate</w>
ch u
apologi zed</w>
United_ Kingdom</w>
Th ur
Sp encer</w>
Simil arly</w>
ST ING</w>
S no
R aul</w>
Ol d
NAS A</w>
KK KK
K IN</w>
Iraq i</w>
In do-
Ho li
H ill
H OT</w>
D J
Che atsheet</w>
Ch anging</w>
C O</w>
Bre ak</w>
B out</w>
B le
A ustrali
14 .
#Gamer Gate</w>
# wed
# me
# it
work out</w>
whit ey</w>
wal d</w>
w ack</w>
v et
um ping</w>
tho logical</w>
thi op
system ic</w>
sp ice</w>
simil arities</w>
sched uled</w>
sac red</w>
s burg</w>
res sive</w>
pu n</w>
neighb or</w>
min ing</w>
mi tive</w>
mani fe
lu dicr
lic ence</w>
li bs</w>
here by</w>
gu ards</w>
grad uation</w>
g ur
font- size</w>
es timated</w>
dy nasty</w>
dra in</w>
down town</w>
dip shit</w>
dial ec
de ck</w>
cre ators</w>
cou ch</w>
consul t</w>
confir ming</w>
campaign s</w>
ca pped</w>
br igh
bas ics</w>
b bing</w>
_ mark
X D</w>
Ton ight</w>
St and</w>
Sel f-
S car
S I</w>
S D
R ain
Opin ion</w>
OP IN
No table</w>
NIGG ERS</w>
M ali
Ky le</w>
G y
Engine ering</w>
Ed it
EN T
Con stitu
C lim
Braz ilian</w>
Bor n</w>
Auth or</w>
As sem
Argent ina</w>
Americ a's</w>
AT H</w>
9 8
5 5
12 3</w>
- to-
# ha
# 1
wor d
wh ale</w>
ver sa</w>
ug en
tw in</w>
tru ths</w>
treat y</w>
tr e</w>
th ed</w>
te h</w>
super iority</w>
subm itting</w>
shame ful</w>
sc oring</w>
san ction</w>
s n</w>
s 's</w>
roprac tic</w>
ro tten</w>
ro pe</w>
right_ arrow</w>
respec tfully</w>
ref re
qu o</w>
pres en
por k</w>
po pping</w>
pe ers</w>
ow a</w>
neighbour hood</w>
min es</w>
li shed</w>
ion ism</w>
inv ent</w>
inter viewed</w>
hom eland</w>
hi j
har a</w>
gra tion</w>
eat en</w>
contradic ts</w>
consci ousness</w>
con gr
compe ting</w>
call _
ca ine</w>
be _
barbar ic</w>
a il</w>
TH ANK</w>
T ak
Spir it</w>
Re trieved</w>
R as
O LD</w>
Nl 33
Mil es</w>
M erg
LIT TLE</w>
Kar l</w>
Jac ob</w>
G ang</w>
Fuc ked</w>
Fr ont</w>
Ed die</w>
Ea st
D RO
D ER
Ch er
Ch al
Capric orn</w>
Cam p
C LO
BN P</w>
19 5</w>
. net</w>
#c ash
#A us
# fri
# big
wan ker</w>
v anity</w>
ur g
tra il</w>
ti sh
tain able</w>
suppor tive</w>
stro ke</w>
stra p</w>
sp icy</w>
s ounded</w>
ri bbon</w>
reve aling</w>
pe g</w>
p se</w>
organ ize</w>
on ka</w>
o sa
nigg az</w>
neighb ours</w>
n d
medi ate</w>
lg bt</w>
legi tim
led_ cap</w>
jap anese</w>
j et</w>
itt ers</w>
incre ases</w>
in ers</w>
in clusive</w>
im person
illi ons</w>
harras sment</w>
gl ance</w>
execu tion</w>
el derly</w>
e ter
e igh
dis ingen
dis agreeing</w>
di amond</w>
de par
con cur</w>
clinking_ beer_
clinking_beer_ mugs</w>
can vas
call_ me_
boyco tt</w>
bil led_cap</w>
be ar
as sed</w>
an te</w>
adelphi a</w>
abstr act</w>
a to</w>
Your self</w>
W rest
W ill
Viet namese</w>
Th row</w>
TO P</w>
T V
Stu dy</w>
Sel f</w>
SE X
R at
Pos sible</w>
Pir ates</w>
Penn sylvania</w>
O mega</w>
NY T</w>
M um
Kin dly</w>
K ings</w>
In iti
I d</w>
HAR D</w>
H und
E thiop
E asy</w>
De ep
D evil</w>
C LE
Bre aking</w>
Bloo dy</w>
B ren
Ariz ona</w>
A the
:3 2</w>
19 50</w>
#euro 2016</w>
#Q Anon</w>
#B lack
# food</w>
zer land</w>
w ire</w>
un warranted</w>
tim ing</w>
til ity</w>
swi mming</w>
sv g</w>
sun shine</w>
sub human</w>
rel uc
ra j
pronoun ce</w>
prin ting</w>
pres ently</w>
pen etr
pa per
opa thy</w>
no t-
net works</w>
music ian</w>
mun icip
man -
lo bby</w>
lin ess</w>
li b
li am
l er's</w>
j ar</w>
ind ul
in um</w>
im me</w>
her d</w>
he ated</w>
ha l</w>
go yim</w>
for bid</w>
for -
fle x</w>
disc lo
de por
dark er</w>
d ge
cur iosity</w>
concentr ate</w>
con que
con gres
ch ant</w>
c tic</w>
c able</w>
brow nie</w>
auth en
app les</w>
an- American</w>
an ne
an _
Zion ists</w>
Z im
YEA H</w>
YAA AA</w>
YAA A</w>
Wi fe</w>
T ed</w>
T ab
ST ER</w>
S pon
L ight
K ill
K entucky</w>
Jer ry</w>
J F
I -
He ard</w>
G ame
Fi eld</w>
Em peror</w>
E rr
Dele ting</w>
Compu ter</w>
Cap ital</w>
By z
B an</w>
B UR
Al bum</w>
9 8.
4 7
196 0s</w>
11 .
# build
ti re
swi m</w>
surpr is
str angers</w>
statis tical</w>
st en
si blings</w>
sem ite</w>
s ss</w>
rob bed</w>
ri pped</w>
pp i</w>
pos session</w>
popu lated</w>
pain ted</w>
p ace</w>
oooo ooo</w>
my ths</w>
mat e
lif ting</w>
kr it</w>
ip ad</w>
in fected</w>
h iring</w>
h art</w>
h all
ga ining</w>
g inger</w>
fe es</w>
f ont</w>
ele mentary</w>
col d
br ick</w>
bi ases</w>
b uck</w>
as sess</w>
ange lic
an them</w>
al as</w>
aim s</w>
ago gue</w>
ad orable</w>
acc ess
_ eyes</w>
Y ear
Wal ker</w>
WWWWWWWWWWWWWWWWWWWWWWWWWWWWWWWW WWWWWWWWWWWWWWWWWWWWWWWWWWWWWWWW
V ol</w>
To tally</w>
Terror ism</w>
T um
Sy dney</w>
Sha kespe
HAAH HAHAHAH</w>
Di ana</w>
DON E</w>
Chic ken</w>
C U
BREA KING</w>
B igg
Alex is</w>
AS ON</w>
AN TI
3 d</w>
( 8</w>
# pe
# indi
zz le</w>
zbol lah</w>
vis its</w>
un blocking</w>
u um</w>
trust worthy</w>
squ ir
soul s</w>
sec ts</w>
sc ra
satis fies</w>
s our</w>
ret y</w>
res sing</w>
pro m</w>
poll u
p ne
p atch</w>
om f</w>
ol y
objec ted</w>
o v</w>
nes see</w>
mp s</w>
mat ory</w>
man ually</w>
liter ary</w>
list ings</w>
libt ards</w>
encour ages</w>
dic ate</w>
di st</w>
develop ers</w>
de sk
cu ase</w>
countr y's</w>
coun try
copy rights</w>
continu ous</w>
co ins</w>
ch ill
butt ons</w>
but ter
biz nitch</w>
aud acity</w>
athe ists</w>
are st</w>
an us</w>
amaz ed</w>
ab sent</w>
WOR K</w>
U ber</w>
Sing apore</w>
Pho tos</w>
P utting</w>
Oc cup
N as
Mar keting</w>
I AL</w>
FU LL</w>
Ex plain</w>
Ef fect</w>
Dis co
De cl
Commun ists</w>
Campa ign</w>
Aqu arius</w>
20 s</w>
19 4
12 .
z ionist</w>
y up</w>
w o</w>
w agon</w>
ustral ia</w>
und ry</w>
un substantiated</w>
un pleasant</w>
uck le</w>
tru thful</w>
trans liter
too th</w>
sup po
sub stan
strong est</w>
stre aming</w>
str o</w>
ste el</w>
sli ck</w>
scre ams</w>
rub bing</w>
ret ro
requ iring</w>
re sume</w>
ra tic</w>
psy cho</w>
psy chiat
propri ate</w>
prev ents</w>
pe as
pass ages</w>
p ous</w>
our ing</w>
o ther
nu n</w>
notic ing</w>
non sensical</w>
n b
men u</w>
m oot</w>
lef ties</w>
l anding</w>
ir responsible</w>
ho i</w>
h anna</w>
grinning_face_with_ big
grinning_face_with_big _eyes</w>
fortun e</w>
ex cer
develo per</w>
defini tive</w>
de eds</w>
cro p</w>
cheese I</w>
champ ionship</w>
can on</w>
bran ches</w>
assu red</w>
ar do</w>
any 's</w>
am ous</w>
al pha</w>
Wis consin</w>
Vene zu
US ED</w>
TH RO
Sa mo
S ky</w>
N ev
Mo scow</w>
Mer ry</w>
Le a
L ang
Jus t
Islam ist</w>
Idio ts</w>
IN S</w>
IL E</w>
G host</w>
DDDD DDDD
D T</w>
Col lec
Centr e</w>
Cari bbean</w>
Buddh ism</w>
BO S</w>
B rett</w>
Anton io</w>
7 00</w>
198 1</w>
#M y
# jus
# android</w>
tur n
tur alism</w>
tu re
tri ple</w>
tra uma</w>
ti more</w>
the id</w>
t asks</w>
succe eded</w>
sec tor</w>
s oooo</w>
reti re</w>
ren dered</w>
red -
r igg
punc tuation</w>
predic table</w>
pra ying</w>
po ly</w>
pis ses</w>
perm it</w>
pas sive</w>
p son</w>
p df</w>
oph y</w>
ni p</w>
milit ant</w>
micro phone</w>
lma oo</w>
kk k</w>
jer ks</w>
insi sts</w>
im ent</w>
igg y</w>
hand y</w>
ha mm
gl ory</w>
gest ure</w>
fe e</w>
far mers</w>
ex it</w>
ev ing</w>
en ly</w>
do or
danc er</w>
cre ts</w>
could 've</w>
cou p</w>
ch ick
bul lets</w>
bor der-
be y</w>
at t</w>
at oes</w>
arr ang
anec do
ali tion</w>
af ore
adjec tive</w>
adequ ately</w>
ab lo</w>
Z Y</w>
Wal ter</w>
Th re
Semi -
Sam uel</w>
Rom ans</w>
P ure</w>
Nor ris</w>
LI L</w>
L D
Kar ma</w>
Immig rants</w>
Hon ey</w>
Hindu ism</w>
Gra m
Gener ally</w>
Fre em
F ish
E M</w>
E GO</w>
Dumb ass</w>
BO TH</w>
Af ter
AMERIC A</w>
196 5</w>
13 th</w>
#ri p
#fin dom</w>
# sp
# hot</w>
# game
y na</w>
villa in</w>
vi br
un familiar</w>
tur d</w>
to w</w>
tiv ism</w>
tit ties</w>
the atre</w>
t arianism</w>
sy nop
ster 's</w>
specific s</w>
separ ately</w>
se i</w>
pseudo science</w>
produc ers</w>
pe l</w>
pat ron
par a</w>
nu des</w>
money _with_
money_with_ wings</w>
mang ina</w>
mag n
m edit
k el
ir ish</w>
inter rup
infra structure</w>
in er
hon our</w>
hold ing_
gu y
gu it
grad ed</w>
fla me</w>
f ever</w>
expe lled</w>
ev olutionary</w>
et t</w>
di stric
dep end</w>
den o
dead ass</w>
d or</w>
cri pp
condem n</w>
come back</w>
collec ting</w>
col lected</w>
col league</w>
bu zz
bo s
alm art</w>
addic ted</w>
a wake</w>
Wor k
Rep res
Pro ve</w>
Po si
Pakistan is</w>
P unk</w>
Ore o</w>
Nor m
Inci dentally</w>
In to</w>
Im port
H Y
Glen n</w>
G ang
For um</w>
F UN
E ye</w>
E A</w>
CUNTCUNT CUNTCUNT
CHO CO
Bab y
B au
Administ ration</w>
3 000</w>
197 4</w>
#be ach</w>
# wedding</w>
# twat</w>
y le</w>
w ages</w>
vir al</w>
ur i
un willing</w>
un doub
trim med</w>
thro ws</w>
th y
spo kes
simul ator</w>
si e
sh allow</w>
reason ed</w>
ran ting</w>
rab id</w>
progra mme</w>
por tray</w>
pas sport</w>
p ster</w>
out si
mul at
lo an</w>
les ale</w>
la tin</w>
l ads</w>
kin ews</w>
j ay
integr ated</w>
inno cence</w>
holding_ hands</w>
heli cop
geo graphical</w>
ga thered</w>
fr o</w>
floo ded</w>
fl u</w>
fl orida</w>
fi res</w>
ell ers</w>
dum ber</w>
dr um
de luded</w>
construc tively</w>
compe titive</w>
christi anity</w>
cho p</w>
child ren's</w>
character istic</w>
cha p
ch or
camer as</w>
c tive</w>
bo dy
b ore</w>
asses sed</w>
as sets</w>
ap t</w>
addi ction</w>
ac id</w>
a ke
Tr ade</w>
Th or
Semi tism</w>
Sch um
SOU RC
Rol l</w>
Phys ics</w>
PR OOF</w>
PO LIT
Oce an</w>
MMMM MMMM
M oo
Leg end</w>
Keep er</w>
Jay den</w>
Jam ie</w>
J ess
Inv asion</w>
IS P</w>
Ho sp
GA ME</w>
Fantas y</w>
Fa me</w>
Execu tive</w>
Br y
A B</w>
99 .2
4 ,
- and-
# quotes</w>
# life
who le
wat ches</w>
un ite</w>
u de</w>
tou rists</w>
tic an</w>
th ursday</w>
taxpa yers</w>
t r</w>
ss ly</w>
spur ious</w>
speci alist</w>
she 'd</w>
ser i
se men</w>
s anity</w>
r ass</w>
que ens</w>
prof its</w>
pro stitute</w>
prison ers</w>
pres ti
pre va
practic ing</w>
pe an
par ade</w>
out door</w>
obe y</w>
nap chat</w>
mus cle</w>
m -
lol i</w>
legi timately</w>
l er
je al
ital ian</w>
irr itating</w>
inten se</w>
insi st
in a
identi ties</w>
hand_ light_skin_tone</w>
fac ilities</w>
eth nically</w>
equ ations</w>
en er
emo tion</w>
eas iest</w>
do o</w>
dl ed</w>
cher ry</w>
blo ws</w>
ber y</w>
b art</w>
as ive</w>
accur acies</w>
YE ARS</w>
Wee kly</w>
Vo ice</w>
Van couver</w>
US D</w>
U LA</w>
T ren
Sur vi
Rom a</w>
Res er
Pro gres
Pr ice</w>
Persi ans</w>
P ull</w>
O G</w>
Leg al</w>
Jour n
Jo se</w>
H I
D D</w>
Chr onic
Bl on
BAST ARD</w>
B log</w>
B LE
Awa kening</w>
A Y
:0 2</w>
7 0.
197 6</w>
#N intendo
# real
yy y</w>
y n
wra pped</w>
w rec
ver dict</w>
vacc ine</w>
ussi ons</w>
un justified</w>
ty 's</w>
trav elling</w>
teen th</w>
struc tures</w>
sne ak</w>
sha ming</w>
se p
review ers</w>
qu et</w>
pun ching</w>
proto col</w>
portra it</w>
pend ence</w>
p assionate</w>
min dless</w>
loc ate</w>
le ton</w>
ji had</w>
inf lation</w>
ic ide</w>
hosti lity</w>
har d-
gro ws</w>
gen tly</w>
for merly</w>
ep tive</w>
enti rety</w>
e v</w>
dis ability</w>
descrip tive</w>
com posed</w>
cle ar
cap tions</w>
bar rel</w>
b ak
a un
Wikipedi a_
Wat ers</w>
W olf</w>
W ell
W almart</w>
T ory</w>
T M</w>
Stu dents</w>
Sex ual</w>
S le
Pol es</w>
P ick</w>
P 's</w>
OR E</w>
Ni xon</w>
N ag
M ist
M aria</w>
K now
Indones ia</w>
IMD B</w>
ID F</w>
Histor ic</w>
H at
GG GG
Frank lin</w>
Fem ales</w>
D oom</w>
Cam p</w>
C ALI
C AL</w>
Be g
Be ast</w>
An gl
AR REST</w>
7 4.
3 2
197 7</w>
196 9</w>
11 th</w>
# la
y oga</w>
wiki 's</w>
un follow</w>
ud i</w>
tt le</w>
th x</w>
st ink</w>
spec tac
soci al
simul taneously</w>
sh o</w>
sen seless</w>
sa tire</w>
retard ation</w>
rele asing</w>
re ha
ra ppers</w>
pe di
objec tivity</w>
mis tic</w>
marri ages</w>
mar ine</w>
m art</w>
le z</w>
la sted</w>
kem on</w>
ja ja
it ory</w>
inf lam
inf amous</w>
in justice</w>
in juries</w>
identi fication</w>
h l</w>
gu m</w>
fri es</w>
excep tional</w>
ety mology</w>
enfor cing</w>
end ation</w>
eli gible</w>
e ager</w>
douche bag</w>
divor ced</w>
distribu ted</w>
di sts</w>
deser ving</w>
de trim
d oo
d les</w>
con census</w>
chee ks</w>
bro s</w>
bo thers</w>
be dro
bas es</w>
bal lot</w>
aw w</w>
as i</w>
anti- Semitic</w>
a ya</w>
_ _
Wr iting</w>
Was n't</w>
Vis it</w>
Ty pe</w>
Simp lified</w>
S CH
Rob in</w>
Ro d
Que bec</w>
Psy cho
Pal in</w>
PU A</w>
OPIN ION</w>
O w
O t
N C
Mo ving</w>
Mes si
Mer kel</w>
May or</w>
M el</w>
M O</w>
LI E</w>
L IN
Ho tel</w>
He av
Ev olution</w>
E va</w>
De an</w>
Cha se</w>
Cal gary</w>
CHOCO BOS</w>
C oc
BO X</w>
4 8
197 0s</w>
15 th</w>
#Nintendo Switch</w>
#Ban Sharia</w>
# sex</w>
# happy</w>
z illa</w>
work place</w>
wat ers</w>
w ished</w>
unil ater
un fairly</w>
tre mend
ti te</w>
them es</w>
the dr
th on</w>
teen ager</w>
ta stes</w>
suffic e</w>
stu ffed</w>
stitu tes</w>
sta tic</w>
sla mmed</w>
s ore</w>
s oph
s its</w>
rug by</w>
res ign</w>
remo te</w>
re in
re adily</w>
prob ation</w>
p acking</w>
ow ning</w>
over sight</w>
outr aged</w>
offic es</w>
off line</w>
mechan ics</w>
ludicr ous</w>
lol "</w>
l s
itt le
in n</w>
h tt</w>
h ispanic</w>
go t
ful ness</w>
folded_hands_ medium_skin_tone</w>
fir mly</w>
f ade</w>
ex poses</w>
d enti
cre ep</w>
cor k</w>
cli cked</w>
c ep
bis hop</w>
back lash</w>
ati sm</w>
asser ting</w>
ap pointment</w>
aggres sion</w>
afric ans</w>
adm i
ach us
_ medium-light_skin_tone</w>
Y ester
W ON
Talk back</w>
TR UE</w>
THO LE</w>
TH INGS</w>
T in
Scienti fic</w>
S tick</w>
S ter
S ki
S cou
Portu gal</w>
Pis ces</w>
Ph illi
P rac
P T
O il</w>
NNNN NNNN
Mont ana</w>
Medi c
Ma sters</w>
MA D</w>
Leban ese</w>
L ess</w>
Kur t</w>
K ann
EN TI
D um
Cle an
Ci vi
Champ ion</w>
CC CC
C over</w>
B ran
9 8.2
7 7
#de pression</w>
# holiday</w>
# enjoy</w>
# dad</w>
" And</w>
y cle</w>
x ies</w>
ww ww
w igg
uno ffic
tun ed</w>
tri bal</w>
su f
sp ire</w>
sour i</w>
sick ening</w>
secret ly</w>
sc op
s ins</w>
reg ret
rac y</w>
pi er
pe l
over _
op t</w>
o ath</w>
murde rers</w>
mig rant</w>
l ac
j ar
itt arius</w>
ir i</w>
homopho bia</w>
gr in</w>
g le
flu id</w>
fe male_sign</w>
e k
dum ped</w>
dro wn</w>
dr ug
dis gust</w>
design ation</w>
demo graphics</w>
de vo
de af</w>
con qu
compon ent</w>
comp il
certi fied</w>
capital ized</w>
bus ted</w>
be cuase</w>
au ton
Ya hoo</w>
Wor kers</w>
Tur n</w>
T ree</w>
Sto ck
Sh oot</w>
Res ist
Phi lip</w>
PLA YING</w>
Os car</w>
ON G
Notic eboard</w>
N ight
N HS</w>
N ATI
N AM
Mel bourne</w>
MON EY</w>
M ine</w>
M edit
Ju l</w>
J ar
Im perial</w>
IN TO</w>
H IST
H EA
Go v
For ces</w>
Fin an
FOR NIA</w>
F is
F ighting</w>
Elec tr
Com par
Cir cle</w>
Cat al
CALI FORNIA</w>
C ount</w>
BE TTER</w>
AM A</w>
197 1</w>
#a us
" #
wik is</w>
we a
v ap
un licensed</w>
tu ary</w>
trans lat
tor ies</w>
t agon
syste matic</w>
st as</w>
ss a</w>
spo t
semi- protected</w>
se me
pur ge</w>
pri mitive</w>
preser ved</w>
predic ted</w>
pom pous</w>
oxy gen</w>
ori ented</w>
o i</w>
nor ms</w>
new est</w>
n an
mis ery</w>
mel on</w>
ma iling</w>
m u</w>
love-you_ gestu
love-you_gestu re
la sting</w>
k il
independ ently</w>
hypothe tical</w>
grocer y</w>
grab bing</w>
fif th</w>
et ts</w>
erg us
en do</w>
dr agon</w>
d ate
cri b</w>
contri b</w>
cl ash</w>
carto ons</w>
bre ast</w>
bl as
ban king</w>
back ward</w>
b is</w>
anti- white</w>
anch or</w>
an as</w>
_ in_
Wol f
V olume</w>
SC UM</w>
S lim
S AN</w>
P ep
NO TE</w>
NAT O</w>
N et</w>
Mor gan</w>
Min or</w>
Ma p</w>
M am
M Y
Li bra</w>
Hund reds</w>
Ho p</w>
He zbollah</w>
H and</w>
Gen e
FUCK ED</w>
DO ING</w>
C alls</w>
B less</w>
B RA
5 ,000</w>
. gif</w>
#i phone</w>
# redneck</w>
# inspiration</w>
# One
# Be
w 's</w>
under ground</w>
to ddl
st 's</w>
sk illed</w>
sil es</w>
shor ty</w>
ri a</w>
re z</w>
re ra</w>
r ound
qui etly</w>
practic ed</w>
person_ raising_both_hands_in_celebration</w>
ow ski</w>
out put</w>
oun der</w>
musical_ note</w>
mom my</w>
men tor</w>
me l</w>
ma m</w>
k ha
jun ction</w>
is ons</w>
insi sted</w>
horri fic</w>
hor mon
hand shake</w>
h acked</w>
geo graphic</w>
gene tically</w>
fu zzy</w>
fran k</w>
er a
elec toral</w>
el i</w>
e b
dicul ous</w>
design ated</w>
cur ve</w>
coun ties</w>
corro bor
clean sing</w>
clari fying</w>
b alism</w>
assi vely</w>
ambigu ity</w>
aa a</w>
The orist</w>
Tex t</w>
TWAT'TWAT'TWAT'TWAT' TWAT'TWAT'TWAT'TWAT'
So x</w>
STRA IGHT</w>
SHI THOLE</w>
S tic
S ite</w>
Res id
Re cently</w>
Rac hel</w>
R ound</w>
R aw
Pow er
PER S
Natur al</w>
Mor oc
Min istry</w>
Mar x</w>
M I</w>
L ex
Jam es
Israel is</w>
Iran ians</w>
H IT</w>
G ONE</w>
Finn ish</w>
F light</w>
F ast</w>
F RO
Com ics</w>
Clim ate</w>
COMMUNI SM</w>
C ite</w>
Bosn ian</w>
Bet ween</w>
Bas eball</w>
Bap tist</w>
B ell
B D</w>
AN G</w>
5 /
199 0s</w>
196 8</w>
14 00</w>
12 th</w>
12 2.1
#s jw</w>
#build thewall</w>
# he
x 's</w>
who lesale</w>
weak ness</w>
wal low</w>
w ers</w>
vi be</w>
val ence</w>
unilater ally</w>
un documented</w>
tur kish</w>
tum blr</w>
transc luded</w>
tor tured</w>
th urt</w>
str ings</w>
star ter</w>
sis si
sing ular</w>
sh ills</w>
sch em
s .com</w>
ro d</w>
reinst ated</w>
q a</w>
post ings</w>
porno graphy</w>
pers ist</w>
paki stan
mou ths</w>
medic al_
medical_ mask</w>
li ck
kno ck
k t</w>
jiha di</w>
is ine</w>
he ed</w>
guaran teed</w>
g li
friend 's</w>
fi le's</w>
fantas ies</w>
face_with_ medical_mask</w>
enc e
electr icity</w>
disc laim
disambig u
cri es</w>
conque red</w>
cere mony</w>
capit alist</w>
bul k</w>
brac kets</w>
ben ch</w>
bar b
back up</w>
as sment</w>
arr anged</w>
appro aching</w>
ach i</w>
ac tin</w>
a ster</w>
Y am
W ild
V V</w>
Tha i</w>
T ook</w>
Stor m</w>
S talk</w>
Ro s
Res ol
R est</w>
Qa eda</w>
Pr inci
Plan et</w>
O TS</w>
Naz ism</w>
Mor mon</w>
Marx ism</w>
M ount</w>
Lef tists</w>
L ucky</w>
H UM
F oc
E lection</w>
Con tr
C ook</w>
C had</w>
C ash</w>
C W</w>
Bosn ia</w>
Bor is</w>
Bob by</w>
Bo dy</w>
BE LI
B P</w>
Ap p</w>
AL READY</w>
9 4.1
6 5.
198 3</w>
#pray for
#f itness</w>
#S yri
# don
z -
z 's</w>
veter an</w>
v ary</w>
un ethical</w>
un de
tri als</w>
ti r
tack le</w>
ta tive</w>
t wit
surpris ingly</w>
sou p</w>
slog an</w>
shar p</w>
revo ked</w>
res ign
ren d
ref usal</w>
reduc tion</w>
quali fications</w>
provi der</w>
prefer able</w>
pos sess</w>
po p
philos opher</w>
open_ mouth</w>
occas ional</w>
mud shark</w>
main space</w>
magne tic</w>
le x
ish a</w>
ing y</w>
inc els</w>
in accuracies</w>
il logical</w>
i der</w>
go sh</w>
gen der
g t
fraudul ent</w>
fi er</w>
err a</w>
ep i
e gre
dr a</w>
disingen uous</w>
[...]
